#version: 0.2
e n
t e
r e
en d
o n
t i
a r
s t
ar t
st art
l a
r o
ro d
p rod
u c
prod uc
te r
ti on
re la
produc t
rela tion
o r
a te
or y
g ory
ate gory
i n
o m
a l
e d
o u
c om
a c
t y
v i
ou s
e x
te d
ter n
e l
en ti
p re
in ter
m end
re com
ac ted
vi ous
ex tern
enti ty
pre vious
inter acted
mend ed
recom mended
extern al
i l
t o
on g
b el
c ategory
bel ong
il m
f ilm
C ategory
film s
a n
e r
n g
h e
i c
m er
ic an
A mer
Amer ican
i s
T he
g e
1 9
a ge
is h
ng l
ng u
E ngl
Engl ish
la ngu
langu age
19 9
t he
o f
in g
e s
a t
a m
e t
o l
i g
b y
a s
an d
r i
a d
l e
t h
S t
I I
u r
ig h
com p
a y
i r
o w
produc ed
an y
en t
prod comp
prodcomp any
o o
i d
u re
D e
n d
v e
igh t
er s
L o
c e
u n
u m
19 8
F ilm
T h
B e
u t
h o
u s
i t
l y
M an
c k
C h
r a
o s
i e
ure s
Film s
0 0
d e
H e
P ic
n e
Pic t
oo d
M o
il l
i m
R o
a k
c h
d r
al l
S h
u l
R e
am a
i re
i ty
v er
N e
S e
Pict ures
B o
199 0
c t
B l
a p
u e
199 5
r y
a st
ed y
es s
L i
199 6
ro m
f or
dr ama
com edy
199 7
S p
M y
B ro
f f
I n
P ar
N ight
ar d
199 9
i a
A n
D o
1990 s
P art
e m
at h
on e
Lo ve
A l
W h
a tion
Ne w
o p
o t
D ay
a g
ac k
Y ou
W ar
v en
19 7
199 4
2 00
ou n
19 6
re d
W e
i th
a w
199 8
ol d
B ri
an t
f e
U n
19 5
a in
II I
om e
r an
vi l
G re
l d
s h
el l
M e
u p
u d
on d
a b
P la
oun t
la nd
m an
or k
C ity
M ar
ac e
s e
B la
ou t
A d
n er
De ad
a re
in e
L e
G o
i al
t le
as s
i v
I t
F o
i st
L ast
ous e
S c
ic e
M en
St ar
d y
w ith
ti c
P e
ct or
C l
b o
K ing
u b
ur n
s s
T w
A c
is s
A r
y s
s et
C ol
f rom
il d
v ent
W al
i te
Bro s
F or
C om
B ig
G old
T r
um b
in d
T im
q u
vi e
Al l
A p
19 4
War ner
T o
F ri
C on
i on
A b
e ar
ow n
O ut
E x
M r
o c
K id
200 0
F l
Ro ck
m ent
r in
ac t
K ill
ho t
u g
P ro
en s
Mo vie
C ar
He art
ir l
H ouse
b ut
id e
19 3
k e
St ory
M a
A ng
an g
am p
Y ork
or t
2 0
ac h
H ol
en ce
st ar
Ad vent
am e
J o
G ood
it tle
ing s
H igh
De ath
Do g
a v
re am
ou r
Tim e
O ne
H ome
e p
m o
N o
is e
or ld
D an
comp os
el s
r on
Gre at
act or
W ay
p h
s hot
F ran
G irl
d ay
ire ctor
A m
Li fe
re s
Bla ck
C ro
c o
ne y
th er
or s
D r
i p
ti ng
199 3
A ir
n ight
M ad
E y
at or
D ream
D irector
M on
ti sh
Bri tish
ri m
n o
de but
star red
Director ial
Day s
St re
D is
Stre et
Lo st
Tw o
om an
Bl ue
O n
ul l
T re
L ittle
1 3
Fri day
Bl ood
a ir
b le
W orld
p er
ic h
A f
b er
A w
ur y
P ol
I s
Ab out
D on
u nd
E l
ro r
F ly
i ted
re e
199 2
C o
ic k
Fran k
uc h
Se c
uc k
Bo ys
ount ry
iv ers
Un ivers
Univers al
a u
E nd
R et
Ret urn
p le
D ar
l es
U p
e en
B ack
et h
t s
B r
W ho
R un
p e
n ing
um p
rom an
m y
G l
H ar
re ak
b as
te in
Th at
ar y
ir d
P o
in de
Be st
H all
vil le
198 6
E art
Eart h
i es
G ho
Gho st
ti n
am ount
Par amount
ens tein
Frank enstein
G r
s y
i ver
o on
ol l
i an
C at
13 th
J u
S w
ap p
T al
a ven
F all
C ent
e c
et s
Un ited
s c
F ire
at t
Col umb
Columb ia
in al
one y
H ow
ap e
S up
Le g
Fo x
Pla n
k ing
g er
ak e
ex t
S l
N ext
m as
in s
i er
ur d
H ard
u ff
us h
T ex
Go d
D es
P h
as e
M et
Sp ace
Mo on
bas ed
f ul
p end
roman tic
Dis ney
Part y
Be au
R ed
Wh at
k s
re t
C r
K iss
ri st
T ra
ad em
Ac adem
Academ y
Leg end
a to
B at
os e
ol f
Ch rist
Th ing
a i
H ell
i o
F ear
in em
De vil
You ng
u la
198 8
S un
198 0
B en
Tex as
um mer
S on
F am
F ir
D own
C op
S te
W ild
20 th
Cent ury
u st
Ch ild
a by
n y
Wal t
Par is
S n
C or
Ang el
ill er
197 8
Tre k
m are
Wh ite
Dar k
inde pend
independ ent
Night mare
l ess
ri p
St ud
G en
il y
Bri de
M ass
H ill
v els
E d
ate s
E n
i os
Jo e
C and
Stud ios
oo k
O ff
Mr s
N ation
v es
C la
He ro
ant as
H app
P a
A g
A ff
c ho
H er
S ummer
T er
St ran
J ack
t on
Advent ures
oo t
Gold en
F la
u es
Pol ice
S he
Plan et
e g
P rin
19 2
F r
W ish
i z
Pla y
T ur
b all
Sup er
up p
Advent ure
S o
He aven
Fir st
M ir
o ck
w n
D ie
Tr ue
M ag
ti ve
M us
l l
th ing
Christ mas
B aby
f t
ter s
We st
ad y
A nd
ter y
Par ad
compos er
Q ue
w ood
ac re
Mass acre
ic a
igh ty
Fam ily
M urd
i b
In s
G et
in a
C re
H ood
W oman
Rock y
B ar
m p
on es
M iss
Lo s
P ri
N in
is on
M upp
v ing
o re
Cl ub
no vels
dr en
Se ven
Bl ues
compos ed
S im
D ou
G u
C rim
G un
W ond
Wond er
T it
g ra
gra ph
C i
H un
U nd
P sy
T om
il ly
Fo ol
S ou
is ter
Sec ret
c ountry
Nation al
Com m
n ie
he re
ow er
St ates
Hol ly
Be ach
G i
R ain
ow een
Hall oween
C ra
at ch
Psy cho
E sc
Se a
Esc ape
Y ear
Bo dy
ug h
Air p
M ighty
a ter
el d
B ad
O ld
B ull
R id
G ot
G ame
Ey es
A ss
an ce
Sh ow
S ex
m a
I nd
A la
F e
il dren
ap on
198 5
Gre en
or ror
ac ula
Dr acula
We apon
198 9
il e
S m
k y
ak es
qu el
B el
g in
a ve
S a
i ence
aw n
M oney
le y
Parad ise
F ish
Ac tion
I ron
Re m
or d
Und er
M id
Girl s
e ct
n ess
aw ay
Gen er
O r
R ich
Ro ad
an e
c es
ad e
ath er
Ma x
ity ville
Am ityville
Mo tion
it ch
3 F
M al
P res
r iller
th riller
ato graph
inem atograph
R a
ain s
Me et
ro p
196 0
L ine
B ud
F ace
Holly wood
Tit an
T ro
W as
j a
ac tion
Th ree
Ro om
C al
P op
V er
V o
a ur
Wh en
M as
M ay
Par k
B ra
c inematograph
op le
Pe ople
M om
l et
ou g
Aff air
Bo y
B et
i x
Ne ver
F ree
E ver
s p
il la
ab out
S to
Murd er
ic tion
K ar
Ap es
198 7
L ady
F inal
Th ings
i en
Ey e
Gi ant
i fe
Har ry
b la
h att
Man hatt
ak er
Manhatt an
M um
W ife
Ch ildren
R oman
i eld
n ia
os s
V eg
Veg as
K night
C ur
S er
h n
C ow
Q u
i for
ifor nia
w ay
B ut
R es
F rom
T ar
ed d
J e
ke y
F un
Jo hn
An y
b e
or th
We re
G ro
av y
Mid night
S en
am es
B reak
F ar
Angel es
My s
L eth
Leth al
a z
ing er
M ind
T or
Fr en
Mys tery
n a
z y
W ill
Wal k
P er
w h
f ess
g y
El m
W olf
Aw ay
C an
Ang els
c ess
t t
Mar y
c tion
To uch
L ong
G ra
L ight
C ry
S om
bla ck
in k
Pict ure
ou nd
R is
y age
De m
Vo yage
S le
at ur
Sle ep
Beau ty
M ich
ing ton
ig n
t ain
Be ver
Bever ly
C ountry
ro us
an s
ge rous
Dan gerous
j i
Nin ja
e y
i ble
oug h
T ri
Ro b
Que st
eth ing
Som ething
B urn
L ar
O ver
W ith
Mo ther
he s
ngl e
Ju ngle
S ome
re st
he ad
Go es
Af r
ub le
Tro uble
H ur
S ky
Mus ic
W es
D i
J ud
V al
V ir
Cro w
198 4
Mupp et
is er
as on
198 1
D rop
L et
M in
c l
ol o
Fren ch
d ge
f ire
um an
Bri dge
Cra zy
Ever y
N ot
m e
r ong
1 2
C a
B ird
T e
1 0
Cow bo
R ush
Kill er
Li es
Met ro
P r
V amp
Vamp ire
Sn ow
v ate
Pri vate
197 6
For ce
Kar ate
Mum my
y ond
Be yond
Car ol
Year s
uc e
al e
He re
Kid s
Bat man
Hill s
O m
S ti
St and
c y
s on
Sh ad
S old
H en
W edd
h orror
D in
H and
l in
Af ter
196 2
or ge
ac le
Ter m
D uck
F red
W ind
y n
Airp ort
te en
Sim ple
No thing
Mas k
195 6
L im
rin a
Gener ation
Sen se
se quel
You r
Dou ble
I mp
S qu
199 1
S ix
Re p
S ister
ri ed
g ers
Th in
198 2
War ri
To x
D el
wh ite
ol e
Ch ains
Dog s
Chains aw
E vil
H ot
or m
ight s
V el
a el
Li ve
Cal ifornia
N orth
la ce
Is land
Mich ael
Prin ce
B as
h a
Pro fess
Profess or
G e
P ower
l er
C ab
am b
195 8
M er
ou ld
The re
ag ue
Le ague
Th is
Be ing
Co ol
Titan ic
D oll
umb er
Sec ond
l ow
H am
u th
D am
ti ful
Col or
P l
o ther
ur b
An other
E ag
Kill ing
Rob in
S al
ra iser
Hell raiser
1980 s
ball s
i et
k er
Amer ica
Happ en
n es
A ven
i f
an k
by e
Com p
Good bye
ar ch
Se arch
ho ol
Gl ory
Ham let
ac y
An im
C he
I V
I d
R ose
P ork
193 3
En ter
v s
em p
200 9
B ed
M or
ak ed
King s
N ut
Sp ec
Miss ion
D a
W ater
en a
ut ure
Dream s
Ph antas
Phantas m
d d
Sh a
Li ves
N ow
S ie
h ouse
Ben e
Sie ge
H or
c rim
In n
Sc hool
Super man
G ang
Re g
Fly ing
Tra in
C all
Bla de
Mir acle
Ci vil
Sha ft
B uff
J aw
P ie
ir ty
Re al
Fun ny
Sc re
Prin cess
B and
f ore
G one
Hen ry
T op
ap er
Ag ain
D irty
P et
U r
b an
la d
Li ving
193 1
Ur ban
at s
A s
Be fore
How ard
Hero es
d en
e ed
196 1
195 9
Tal k
S in
re r
ing le
fe ct
Per fect
en n
un e
Bro k
Sold ier
J er
P re
le w
C as
Do ctor
196 3
Sc ience
Dan ce
Wes tern
H oney
oo g
Th und
Thund er
ul es
Tor a
Wedd ing
l ing
ort al
f iction
s k
v ed
Met al
196 8
197 4
E ve
M ut
T een
Sp y
S oc
Bene ath
M i
t les
Tur tles
Mut ant
Teen age
L amp
S mo
r ise
os aur
Lamp oon
f oot
C ut
R ight
k et
ent s
ven ge
ist ry
Reg istry
f ast
m aker
ad o
He avy
Break fast
G ri
S la
Des per
Afr ica
Al ien
195 0
c ist
g o
or cist
Ex orcist
C le
W ide
a la
Bud dy
Ser ial
Every one
Th ie
w yn
He at
Ge orge
R ang
St rip
un ion
land er
Gold wyn
Heart s
High lander
J ones
l ed
Cowbo y
F ac
t a
Ste al
Eag le
th ers
Ro bo
Robo Cop
B illy
T ig
ge t
Dan c
Wonder land
Bro thers
Rem em
S ur
S und
ti z
Mar ried
Ci tiz
M c
u al
as er
st r
al c
Br ing
Ind ian
W itch
m at
q ue
Pres id
K n
L ord
j ect
ar a
Ar ti
Cro ss
A tt
W ings
l ins
o ve
197 2
Stran ge
May er
Kn ow
B ir
P ort
T own
l i
Ex t
Nut ty
W ork
crim e
Z one
st s
Bo b
cinematograph er
Shad ow
M ount
R iver
ra it
Port rait
Mount ain
c al
B ook
S am
Ro ber
Fo re
Pro p
Beau tiful
Arti sts
G ames
M uch
N ine
S ab
195 3
P at
P ass
V ac
On ly
Po ison
O wn
l s
in t
197 5
Vac ation
C ir
o te
Ma j
Tox ic
Aven ger
Cir c
E r
L ou
P al
g ed
at balls
Me atballs
198 3
atch ers
Cur se
With out
E ff
k in
u te
ic al
Car n
tin ct
Ins tinct
Jaw s
Eff ect
C ho
S ide
o ved
as ter
Fall ing
Bel oved
Ver y
F our
F ull
om s
De ep
Re venge
Ben ji
E mp
G ig
194 6
Sa fe
Emp ire
E m
L aw
P un
P ink
S ant
T in
194 9
Sant a
V ol
ol i
i ti
ak ing
B amb
J our
J ason
Aw ard
Mag ic
O ther
v el
qu i
Cor n
195 7
H ide
195 5
Pe ak
Fall s
Crim e
Pork y
us tin
Ris ing
O per
B er
K ind
b ird
v in
it s
V illa
in o
H on
K ong
om en
at al
ri ty
Bar b
Villa ge
E ven
S an
antas y
h ington
n ed
Was hington
Dam ned
Jour ney
F reak
F atal
T rip
D ol
O p
Ar m
Cand y
Dol ittle
D ick
E as
e et
Mar s
Wal king
Sw eet
Eas y
F air
ket ball
A re
A bo
u el
at ure
Bro ad
196 6
are t
Inn oc
Abo ve
m ing
ro l
ow ers
Con t
sc ience
W rong
F av
S il
S av
Y ell
ar s
Warri ors
C ond
F i
M ortal
r is
ate d
Sl umber
Sm all
Fav or
F il
L ess
ad d
My ers
tic al
b reak
ama x
Kill ers
Mir amax
C ast
t tle
u ri
Bo ttle
Maj or
T akes
f antasy
c is
f ield
l la
o vi
The y
Sh ag
197 0
193 7
Way ne
Bull ets
ovi ch
Be gin
it a
194 4
On ce
Co de
inem a
Roman ce
Begin ning
C ame
L ol
The ir
Ch ase
In ter
Hol low
Ed ge
cinematograph y
Sto p
Lol ita
C old
o b
r up
x y
St one
Re c
En c
atur al
A ce
C inema
I ce
V ent
a il
ur a
Ph ant
Rober ts
Vent ura
B ab
l ock
al o
Pro ble
Sou th
Proble m
b ie
u ic
u ke
Do ors
Gl en
Happen ed
3 4
J ul
in ator
Her bie
Term inator
34 th
A S
B y
on s
in ess
ad dy
By e
Ar t
N aked
194 0
Crim es
b ow
er t
T ot
Th om
Des ert
Cre ep
Comm it
Buff alo
Tot al
V an
Pe ter
Fla t
Smo ke
F ron
S ens
W is
h ol
s co
mer s
No on
Att ack
sco res
P ose
S uic
b ot
b ound
art ment
ck s
Gre ase
F ather
am s
id on
Ch amp
Ab bot
Bet ter
Pose idon
W here
z e
ie ty
Qu iet
Vir gin
Soc iety
Thom as
D ig
F an
P aper
S ay
S hot
al y
St orm
De ar
Bo il
ang o
tain ment
Enter tainment
H our
W iv
r ican
id den
Bo x
Li ke
ard s
Al mo
Tim es
Ap artment
Mupp ets
Hur rican
Comp any
Wiv es
Almo st
Hurrican e
E le
F uture
R aven
Sp eed
For t
pe ct
B on
ing ers
Th an
Sh oot
ell o
Gr ump
Cla ss
K ra
L aur
O b
V I
Y ards
e k
We ek
Legend s
Remem ber
Er aser
Kra mer
a it
b ack
c at
w olf
Out s
Ag nes
Were wolf
Bring ing
produc er
as ure
it ter
Tre asure
l end
Sp lend
Men ace
2 2
A ct
L ow
N a
P an
S us
T ran
Ch ap
Tal e
Da ugh
ti an
la ne
ed it
el ena
il k
id ers
Gr and
Airp lane
edit or
G ard
P ur
197 9
Ste p
Fool s
Sab rina
Chap ter
Pur ple
O dd
v y
Par ent
Part s
Tra p
Tran s
B ound
G ent
l ar
le man
192 5
Hun t
Laur a
Gent leman
B ul
B are
W illy
Z e
r ence
re es
as ures
ad ed
Lo aded
Ch ina
Me asures
ip p
Dar n
Mag n
Prop he
Bare foot
C ould
K l
V iv
W ai
uc ers
St ri
im um
for d
Max imum
Wai ting
C up
D et
P red
P rim
m lins
et ch
Gre mlins
Fl etch
ang er
End ing
Never Ending
Dem on
Pred ator
a f
i lad
n c
t ation
v ation
la s
el ph
id es
Be ar
Do om
194 1
Ph ilad
Rid es
Sal vation
elph ia
Philad elphia
B oog
E ar
W ood
u ter
v et
Com ing
Mon s
Res c
Val ley
Vel vet
Boog ie
H a
i ous
Brok en
O c
R ad
b us
to ber
oo p
Mind s
Second s
Cle ar
Rang ers
Innoc ence
Fort une
Ha un
Oc tober
Rad io
C are
K ne
T oo
g gy
r ay
Th ough
ist ory
Pe ggy
Tr ick
Fri end
El mo
Wonder ful
Fac es
Kne w
B an
C ome
H istory
P ay
T emp
r ats
u ng
en ty
Ass ign
Temp tation
Assign ment
P ump
T ake
u de
Bat tle
Miss ing
oss ible
Fred dy
Imp ossible
Fil es
M el
R ent
S ub
b ad
i or
on t
Wh ole
Mon key
Sin bad
B one
R and
G ate
V en
an as
ri e
Ghost bus
Off ice
Stran gers
Ban anas
Ghostbus ters
w in
w ork
Ch ar
Ad d
Cand les
eg a
Om ega
d own
g irl
or n
ic t
Car rie
Mon th
Sn atchers
iz ation
Mor ning
Gig olo
B u
J ames
S and
T urn
l ight
vi ving
De cl
Ro x
Se mat
Mad ison
Om en
Del iver
Anim ator
Civil ization
Sur viving
Decl ine
Semat ary
M ul
w orld
Al one
Rid ge
Wind ow
R ules
z an
pre ss
Tar zan
A ustin
L awn
N atural
P i
P owers
S ing
ti ans
Th ird
200 3
Pla ce
Po st
Play ing
Fi ve
C el
s se
Cla us
Citiz en
C oc
D al
L a
W ag
St uff
Se e
Com edy
Ex press
Coc oon
D awn
W omen
c tive
g ment
w here
te ctive
id ate
ub ber
Fl ubber
20 12
Cand idate
Jud gment
B orn
H al
M ust
S our
W el
u tive
w ard
com e
and a
Ex ec
iz on
Hor izon
Wel come
Exec utive
M at
ir acy
Ch ill
Mo d
200 8
Cl ock
Con sp
Gun s
Sund ay
Hal f
Consp iracy
D id
O ur
rela ted
Se quel
20 10
res p
girl s
L ond
P it
P ast
R am
f ather
God father
Indian a
Lond on
P ac
R el
S ch
b ia
j ama
Re union
Pa jama
Any thing
Squ ad
Post man
R uth
if ic
Spec ial
Ram bo
Pac ific
H orror
L as
T am
i us
on a
ti ce
ter ge
us tice
In v
An na
Pol terge
Pa lace
Candy man
Polterge ist
D ate
L ake
M ess
S ug
i ff
New s
Le ave
mas ter
Ra is
Desper ate
Sug ar
b t
ro ugh
am ed
Th rough
Tw in
Co b
Fla ming
And re
Dou bt
D ump
z il
el ing
Ap ple
Fri ed
Gen ius
Fe eling
Bra zil
Dump ling
J ustice
M iller
oun ty
Pro ject
Run ning
Dark ness
Comm and
Cond or
C ape
P ir
R ip
i ers
en ted
Ab s
Rich ard
sp ort
D or
D ist
F alc
H uman
re m
196 7
Ala sk
Falc on
Alask a
B al
S ain
ro w
ed ited
Sav ing
Dor ado
J am
e e
ad vent
Sh in
194 3
Sti ll
Fore ver
Bab e
advent ure
D ust
l ic
as h
He ights
Ar my
Con que
Fl ir
Rep lace
Commit ted
Replace ment
B ow
H ate
f inger
ia h
But ch
P ret
192 6
Que en
Let ter
Call s
iti es
Pret ty
k ly
m m
o kly
w on
w al
tern oon
fe atur
Af ternoon
Tal es
Gu ard
Gener al
head s
Din osaur
okly n
featur ing
B T
F re
G BT
J ur
L GBT
R os
ar ks
ass ic
Fla sh
Jur assic
la ss
Run away
Rem ains
Pass ion
B ell
G er
N et
He ad
Bo tt
Up on
Sun rise
Rid er
Vir t
Carol ina
Bott om
F oll
G lass
re ss
id er
Foll ow
I r
ar let
ag o
Sc ream
Sc arlet
J ump
193 2
Thie ves
C our
J ane
c red
Sh all
In cred
Tr uth
Cor rina
M os
P y
re ction
ri f
ur rection
In f
qu en
Rock et
Ed en
Ber lin
A t
ri t
Bed ro
F land
Baby s
Fland ers
F ast
W ire
n k
sh ip
Bla nk
ep ing
Sain ts
P el
ri ve
ri ot
De tective
ier ce
Pat riot
1 6
F is
Ass ass
Week end
Gard en
B ag
M ur
end a
De f
Lo ver
Star s
Car ter
Far m
Doll house
a h
r al
ro rity
St rong
Ch an
oc ity
Mon ty
So rority
way s
Gro ove
Vel ocity
Scre en
Danc er
Favor ite
F ield
or ce
St u
Ch in
Cr umb
Happ y
Lar ry
Hide ous
M ake
e st
ur ai
id ay
Hol iday
Sam urai
Stu art
F ro
W aking
es h
Be an
Pla ces
ful ly
ato es
Hun ted
Tom atoes
em ent
uck y
Return s
Tri Star
Cross ing
st ones
Bro w
195 1
Fl int
Gu ys
Pl enty
Broad way
Splend or
Sub urb
Flint stones
B i
N ature
h ai
i ac
ro und
il t
ig inal
Sh el
Sh ang
196 9
Fl esh
pe ctor
Happ iness
Ins pector
Ala n
Or iginal
Hand s
Jer ry
kin i
Bi kini
Shang hai
Mon t
Fe ver
Hon or
m ar
igh ter
Blood sport
B ron
K e
The ory
ak en
Li ar
iv ing
Aw aken
A ge
E ight
L ag
W ait
c op
la w
Out law
mo on
Murd ers
Honey moon
Steal ing
Lag oon
he art
ad le
Br ady
Cr adle
Spec ies
Tig er
Circ le
7 th
H at
L y
P oo
Break ing
D iv
L oo
R ings
or ia
am i
Be ast
Se ason
ion s
Fl ight
Mi ami
Cont rol
C amp
te ers
al s
Lo g
Del ta
C ook
H ave
a ho
o dy
Man ch
Ghost s
Id aho
B un
ap s
Oper a
Phant om
Bun ch
Mo ve
cl ip
1 7
A round
J ers
ord s
Snow man
Rec ords
Jers ey
W inter
f ly
ter fly
Fran cis
Sup per
But terfly
O uter
T ough
o st
v oc
Ad voc
Fr ight
Advoc ate
B re
R ome
m ower
Cro wn
Lawn mower
Francis co
B all
I vy
L uc
S ara
Re la
Hol y
E ng
F ell
H ud
Al b
Ar th
Fl o
Yell ow
Haun ting
B ug
g ator
vi gator
Ch air
Mar vin
Na vigator
Rome o
D en
U g
z illa
vi s
To y
God zilla
Crim son
Shag gy
Arth ur
Ug ly
a ire
e f
p rise
v o
vi d
Bri ef
sh ow
uck er
Des tin
Mas ter
Pl ot
s ucker
t ra
la tion
la sh
ig ator
Sh akes
ab le
All igator
Pro xy
Hud sucker
P rod
P rom
st one
us e
ath ing
Lady bird
Touch stone
Ca use
Op p
Enc oun
B ic
E clip
R y
ti er
ent enn
Sh aw
New ton
sh ank
ron os
Red emp
oss ess
sk i
Carn osaur
Fron tier
Bic entenn
Eclip se
Shaw shank
Redemp tion
Bicentenn ial
I ll
W ol
Night s
Mar sh
led ge
Know ledge
Carn al
Creep show
Mess age
Wol ves
M ill
te ll
Le bow
Har ve
Gr ace
Cent ral
Pres ent
Bra ve
Mill ion
tell o
Lebow ski
M is
an ors
de me
Can ad
Thie f
Danc ing
Suic ide
Mis deme
Misdeme anors
M ouse
ti ent
om b
om y
id ing
Sl iding
Pa tient
Prim al
F antas
K omb
d lock
ac tical
Sl ing
Mus e
Pr actical
Gri dlock
Cast le
Virgin ia
Destin ation
Ry an
Canad ian
Komb at
d in
er al
ri et
Home ward
Or din
Fun eral
As hes
Prophe cy
Ordin ary
D ud
D anger
F inger
S ho
e la
p rin
ar ies
My th
Ang ela
Sim p
Gra ve
Di aries
Bas ketball
Add ams
Dud ley
Finger prin
Fingerprin ts
B us
D y
F ine
F oot
U s
p la
p sy
Daugh ters
C os
D u
P oc
um bo
200 6
Mer c
Inter rup
Abbot t
Cos tello
Interrup ted
D ave
D umbo
F ight
P itch
T ail
el ly
Tw ister
194 8
Cat s
D ra
M ic
d om
h am
ar ian
com ing
ot a
Con an
End less
Ra ise
Warri or
Barb arian
Marsh als
3 00
O th
g el
art y
The ater
Mo re
ist ad
Am istad
Sl iver
Stran gel
Jack et
Min nes
Law rence
300 0
Oth ello
Strangel ove
Minnes ota
A ra
K w
S es
Y es
at ures
Li st
ind ler
Pa ul
Ala dd
Pres ents
Dem oli
Crow d
Cas per
Wis dom
Sch indler
Ara bia
Kw ai
Ses ame
Aladd in
Demoli tion
D addy
I f
M ile
M arty
U le
b ama
y ote
ut s
ck less
os ite
Re ckless
Se p
Mad ness
Co yote
Ala bama
Pal m
Opp osite
Ule e
6 6
B ast
S ong
T un
m ine
St ay
Mo ck
Gold mine
lin ers
Bas qui
Sal ly
Flat liners
Bast ard
Tun ed
Basqui at
5 4
8 1
A ri
E rin
F em
G uts
M ou
O ct
d s
k es
m ist
p ment
y cat
z ona
ate ur
ou ds
ing bird
St ra
ce iver
ck ovich
ra ft
Sp an
Sp ock
Bro ckovich
Cl ouds
Am ateur
Cop ycat
En tra
Desper ado
Stri kes
Mock ingbird
Ari zona
Mou th
Oct ane
Stra ight
Entra pment
C am
F ug
H idden
R on
W oop
i tive
n t
o ver
er vo
Lo athing
ach er
Sw itch
Ter ror
Res ervo
Je w
Afr ican
Water world
Box ing
Fug itive
Reservo ir
C ri
D uff
F and
G ary
L and
W it
c ol
g on
k ovich
n ity
st on
Ch as
em nity
193 0
mo re
Fly nt
Sim on
Hun ting
Ind emnity
Mal kovich
Fand ango
Wit ness
B AS
D un
E gy
E ketball
G lad
M ister
R ans
T ib
W o
d raft
i ator
p t
el ot
il ity
ic o
th an
it z
Ch ip
ra id
Re inde
Sp lash
Cl ose
Tr uman
Af raid
Back draft
Po ets
Sw ingers
ib ility
Gu y
Sens ibility
Pay back
Special ist
Head s
Cam elot
Duff el
BAS Eketball
Egy pt
Glad iator
Rans om
Tib et
Wo olf
Chip s
Reinde er
D olo
H ab
H ook
J ury
J ade
K al
T ank
V i
b our
c ar
j ack
m ont
re me
or ne
Sh ut
Am y
uch land
Ste lla
Cla ib
Mag oo
Boy z
Gro uchland
Lar ger
Din er
Bir ch
Ext reme
Battle field
Ridge mont
Dolo res
Kal ifornia
Vi ol
Claib orne
D une
E ne
F K
G ad
H end
H elena
J akes
J FK
N ile
W ell
a tic
b s
i ate
m ys
w all
w less
er no
St r
St ate
ers ons
Re illy
Un str
Ac res
oc iate
Ju an
Moon str
Fla wless
Ass ociate
Mal col
Park er
Free jack
Ris k
Stone wall
Raven ous
Bow finger
Inf erno
Jew el
Chas ing
Ene my
Gad get
Hend ersons
mys tery
Unstr ung
Moonstr uck
Malcol m
B aker
D are
G ets
M u
T ap
T ides
y Gr
om er
ed own
ous and
De Mar
Film ed
Th ousand
Man ny
im mer
Bo omer
Sp inal
An aly
ath on
Mar athon
Go ing
ors es
Pol yGr
Sou nd
Duck s
Brok edown
Mic key
Well ville
DeMar co
Boomer ang
Analy ze
PolyGr am
7 7
G ill
H orses
T ingle
g ame
i the
z i
z zi
He ath
Se bas
Col e
Col lar
ach ing
End game
Super star
Pri zzi
Fe w
Sm ithe
Te aching
Pre acher
Though ts
Ron in
Heath ers
Sebas tian
Smithe e
B ur
C im
C uck
F lew
G att
M AS
R aw
S k
V ic
V III
V ars
f id
m us
t en
w ho
w ell
re ement
ar ron
ac a
enti al
Ne st
ation s
Pe ace
Con fid
ke ys
Dan ces
Mon keys
Ag reement
And y
Cre ated
Fish in
pect s
Grump ier
Sus pects
Net work
Us ual
Cim arron
Cuck oo
Gatt aca
MAS H
Vic ious
Vars ity
who se
Confid ential
B io
D umb
D umber
F ab
M ilk
R ide
g us
k ow
k no
ti cks
vi es
er ks
Mo h
ul ous
Bo gus
Bro oms
War hol
Cl erks
Rock s
Dream ed
Fam ous
Comm union
Burn t
Bed kno
Fab ulous
Brooms ticks
Bedkno bs
C ou
P att
s en
la nc
ican s
ge ance
Re f
ab lanc
Ad o
bo dy
mo vies
No body
Gl oria
Jack son
Hun ter
Tor n
Jud y
Rush more
Cas ablanc
Work ing
Van ities
Bon fire
Ze ro
Ven geance
Moh icans
Cou ple
Patt on
Casablanc a
B itter
C oog
D ia
D rin
F a
H air
J uman
W y
g rees
l ington
r ach
t z
t or
ar ation
ed i
De grees
ers on
Sh amp
Bl uff
Wh ile
Ar lington
Ju ice
Jack al
Sa ucers
away s
sp ray
Shad rach
Che cks
Oper ation
Cast aways
Say s
Ear p
Ke eping
Sep aration
Dun ston
Coog an
Drin king
Fa ith
Hair spray
Juman ji
Wy att
Shamp oo
B ones
D red
H as
K h
K elly
L ace
P om
P ale
W r
b oli
c ules
p es
p at
ti e
ad er
th on
Mo b
Mar k
Ac c
Ar sen
Ey re
Street s
Gr ass
Ju ror
Cor ner
Cor rup
Her cules
Cur tain
Jud ge
Min nie
Rep o
Cab e
Mc Cabe
Peak s
Outs iders
Det ail
Mouse Hunt
Dia boli
Dred d
Pom pat
Arsen ic
Corrup tor
Diaboli que
Pompat us
6 0
B aked
C av
C addy
H oo
P ush
d ha
g ing
p ro
s iers
u x
w orth
vi on
ri al
De er
De ux
um e
Ro pe
Re bel
Sp arks
sh ack
Sc ore
tic ian
Cl ue
Wal ly
Is n
Po int
ec tion
Beau tician
Gi ven
Bud dha
Ver d
rest rial
Bas ic
alc ade
Town ers
li vion
Jul ie
Dig ging
Shot s
Boil ing
Ob livion
Step ford
Mel vin
Mos kow
Chan ge
Luc as
Fem ale
Kh an
Wr ath
Cav alcade
Caddy shack
Hoo siers
Push ing
Moskow itz
A un
D ome
J un
M ame
M oll
N igh
N ash
R im
S ier
S ingle
T ower
c in
n am
u ard
or ation
com es
as co
th aw
um s
Be comes
Bro oklyn
An tz
Fo g
Ma il
Dan te
ph y
Mad re
Don nie
Br asco
Sl ums
Mir ror
Pie ces
Boil er
Pan ther
Bul worth
Mur phy
Winter bour
Aun tie
Jun ior
Nigh thaw
Nash ville
Sier ra
Tower ing
Winterbour ne
Nighthaw ks
C ider
D und
N amed
R ug
V ib
d ile
g uard
h ale
i ens
u os
on tain
st oration
ro at
al ow
er n
as ia
th roat
St up
id s
De uce
Re storation
Ne mo
ast asia
ard y
An astasia
Al iens
op ers
op ardy
196 5
Star ship
ub e
Big alow
Ex hale
Pro vid
Cro co
Street car
Des ire
Cre atures
Sou ls
Body guard
Show girls
Mal e
Tro opers
Je opardy
Cut throat
Pun k
Slumber land
hol land
Eraser head
Outs ide
22 Croco
Resc ue
Rand om
win ning
Mul holland
Flir t
Virt uos
Py thon
16 00
Dy ing
Dund ee
Rug rats
Vib es
Stup ids
Provid ence
22Croco dile
Virtuos ity
4 5
C ong
C any
C ly
F oo
H ug
L C
M ole
S add
S LC
V iet
W ong
Z h
b re
f el
f eld
h i
v ers
z ing
at tle
le as
Ch ris
Sh er
Sh ame
Se attle
New mar
ant ula
Bla zing
iv ago
Cl ara
Ar rest
Wal es
Con c
Ex pect
Good fel
One gin
Ter restrial
Get away
Bar ry
Roman tic
Knight s
Tar antula
Every thing
Ext ra
Bamb a
Even ing
Than ks
Cong o
Cany on
Cly de
Sadd les
Viet nam
Zh ivago
Expect ations
Goodfel las
B ite
F er
H is
J af
M ild
N av
P ist
P ierce
P leas
Z ie
a ul
g feld
i ors
j u
on im
er le
ol s
Lo ss
Ch ick
op h
ell er
Le ad
Pe ach
Ap oll
Ex it
Hol m
ron a
Dis co
tin i
Tur bo
Ass aul
Sex ual
Cowbo ys
Che erle
Real ity
Pre cin
Strip es
kin head
San tini
Yell er
Inter iors
Champ ions
Grump y
Trans lation
ipp ed
Pump kinhead
Ger onim
Babys itter
Dra gon
Bite s
Fer ris
Jaf ar
Mild red
Nav ar
Pist ols
Zie gfeld
Chick en
Apoll o
Assaul t
Cheerle ader
Precin ct
Dragon heart
B lew
C ig
C ec
C aper
D t
D avy
E Dt
J ose
R app
a mers
b ro
b ush
g ro
g ate
i k
u ise
te s
et t
ck ett
ap ort
Do ve
ant ville
Sc ary
Star gate
Ar k
vie w
Ex cal
Home gro
Cro ckett
Aff ection
ib ur
John s
Dem ented
Scre amers
Presid io
Lord s
aret tes
Flat bush
Bon nie
Ob ject
Grand view
Bu eller
Fre quen
Sher lock
Pleas antville
Holm es
Navar one
Cig arettes
Cec il
EDt v
Jose y
Rapp aport
Excal ibur
Homegro wn
Frequen cy
2 4
8 mm
A st
M ull
R ag
R io
f ish
g i
m om
w ich
is pe
id el
Lo ving
Pic ass
Wh ispe
War s
200 1
land s
Bla me
iss ipp
ick ers
ump s
Cat fish
Sl ickers
Bat s
She ik
Miss issipp
Green wich
Sm ith
Sa uce
Ra iders
Pop e
Cur ly
Sti r
Hor se
Ele ction
Step mom
Kl umps
Month s
Mod ern
Rais in
Bal to
Cook ie
Paul ie
Hug o
rona ut
Geronim o
Ast ronaut
Rag ing
Picass o
Whispe rer
Mississipp i
C one
C ase
E cho
F actor
F idel
N ell
P awn
R age
R ud
S ull
T ango
b ul
y l
y er
ou x
et pro
ho e
ie ur
197 1
ond a
iv an
Out break
oc aly
Fl ed
Hol land
Har old
Cr uise
ato wn
Parad ine
Bull etpro
ma tians
Pr ison
Lim its
Mc Mull
Work s
Op us
Sil ence
Kl ute
Mons ieur
Radio land
Candles hoe
Dal matians
Rip e
Chin atown
Verd oux
bro ker
Cone heads
Echo es
Fidel ity
Pawn broker
Sull ivan
ocaly p
Bulletpro of
McMull en
C ous
G uff
H amp
R ap
S uture
T umb
T iff
W anda
Z or
a red
b ur
b ury
t ure
an ne
ol ia
us ed
Mar io
To ys
ear ment
Ang ry
ip er
per for
End earment
Tra vels
Stran ger
Tur tle
Tur bul
Ins om
Fe et
Kar en
Gra pes
Di ary
Min iver
Term s
Call ed
eed s
lew eeds
Sund ance
Pass age
Wrong fully
Low down
Bul ly
Magn olia
Viv a
Acc used
Cous in
Guff man
Rap ture
Tumb leweeds
Tiff any
Zor ro
Turbul ence
B ilk
C u
C ed
D ict
F ay
J edi
K ane
K ey
R ou
R ingers
S g
S ue
V is
V ide
Z o
b idden
j o
p ers
r age
t rip
re y
ti ld
ar mist
st about
tern ation
an ha
Lo vel
Sh ane
Sp here
In ternation
Al armist
ot ape
Day trip
ab oo
man ce
Ac es
Col ors
For bidden
Out field
Out rage
Car aboo
Ma tild
ton s
Res urrection
Je rem
John son
Sleep less
Lar go
Id le
Buff y
Sla yer
Bir dy
Shag ged
Enc ino
Wis hes
Condor man
Pir anha
Bedro om
Hamp tons
perfor mance
Karen ina
Bilk o
Cu jo
Ced ars
Dict ator
Fay e
Rou stabout
Sg t
Vide otape
Lovel y
Internation al
Daytrip pers
Outrage ous
Matild a
Jerem iah
8 0
D ress
G ala
H ang
J ag
L one
O ran
S ud
W ing
c age
h ook
m ie
o tive
p ico
p iper
w een
te se
com otive
el ess
et le
ol ute
De are
Lo comotive
Be etle
for gi
Un hook
Un forgi
Ma ude
Fox fire
Fear less
Fish er
Mal tese
Mom mie
Bet ween
Ser pico
Any where
Bird cage
Again st
den ly
Sens eless
Sus an
Odd s
Mons ter
Sand piper
Command er
Abs olute
Fro st
Brow ne
Tiger land
ju ice
Gala xy
Jag ged
Oran ge
Sud denly
Deare st
Beetle juice
Unforgi ven
B urd
G ump
H ack
J ess
N ude
O l
O o
T all
o om
p ins
u ers
w e
re w
end ing
art ac
ac onda
er ent
as ion
Th rees
ly bur
Bl oom
for mers
Sp artac
ff erent
In vis
An aconda
197 7
Sc ared
For rest
ind house
ach el
star ter
ph in
Po ol
Gr indhouse
Fire starter
Kiss ing
Bat ch
192 7
Pri de
Mal ice
Pop pins
Bra ins
Mom ma
Hur lybur
Di fferent
Lim bo
Cab in
Doll s
Dam ien
Mor phin
Now here
Cut ter
Gri t
Fore ign
Hide away
Hon ors
Less er
Dig gers
Trans formers
Resc uers
Rox bury
Cel tic
Def ending
Burd en
Ol iver
Oo ze
Threes ome
Spartac us
Invis ible
Hurlybur ly
B urb
B achel
G y
G ild
J ingle
M ice
O f
O dy
R u
S ting
ro it
el ine
ge ons
id en
un teers
We ar
We ird
Pla id
Bla ir
bo ard
Ap ocalyp
Con fess
Fl ier
Ma iden
Am ade
Mad eline
Sun set
Cla y
Bar ney
Gu ess
Cra ven
Rich er
Tri al
Din ner
Tox ie
Citiz ens
Strange land
Pat rol
Vol unteers
Arm ed
uri an
Magn um
Cup board
Det roit
Pi geons
sse y
Poo rer
Prod ucers
Span king
Rud y
Hack ers
Jess e
Burb s
Bachel or
Gy psy
Gild a
Ody ssey
Amade us
G inger
P age
P ond
S elena
T ights
c ing
ti ngu
ish ed
St ala
Sp ell
em ary
Wh ipped
Bla st
Sc ent
Cl uel
194 5
Dis tingu
ust ry
Tom b
Cra ft
Bad lands
ma id
Ind ustry
Mum ford
Roman cing
Stand ing
Ze us
Rox anne
Sing in
Ros emary
Incred ible
pla ys
bre ad
Ru by
Ginger bread
Page master
Stala g
Spell bound
Cluel ess
Distingu ished
A v
L ass
O ce
R oll
V in
b ol
d ance
f ontain
g lar
l ine
l iction
enti ng
er co
The m
ig ula
Bl own
Do uce
195 4
ond ent
Tr ust
Fly ers
Gl immer
Cor resp
Aff liction
Ter rit
Los er
Cal igula
Light foot
Squ are
Six th
Anim al
Pre fontain
Thunder bol
Presid ents
Vol ume
Abbot ts
Sing les
Tam my
Inv enting
Cob ra
Doubt fire
Ir ma
Pel ican
Manch urian
Cri tical
Bur glar
Zo e
Apocalyp se
Lass ie
Oce an
Roll erco
Corresp ondent
Territ ory
Prefontain e
Thunderbol t
Rollerco aster
C urd
F aster
L ul
M im
M all
P us
T ut
T ie
T em
h rod
n iac
w atch
ti go
la te
De cis
Night watch
ath s
Al ways
Tw ice
Ap hrod
Black be
co late
Aw ake
Don key
Br am
sy cat
So yl
Bel ow
Ver tigo
Sto ker
Te am
Te ase
Six teen
Train ing
Cho colate
Jul ien
nc he
Rel ic
Flash dance
Mark ed
Insom niac
Curd led
Lul u
Mim ic
Mall rats
Pus sycat
Tut or
Tem ple
Decis ion
Aphrod ite
Blackbe ard
Soyl ent
N uke
V II
c ase
e b
i ent
r il
te ase
in te
St air
St ake
ir al
ho g
us k
ck er
Re ar
Sp iral
ag en
bo y
Ap ril
und hog
Po inte
Rain maker
Rain bow
Rem agen
Gro sse
Gro undhog
Enter prise
Water boy
ala nche
Rang oon
Strip tease
Shel ley
Encoun ters
Av alanche
Stair case
Stake out
6 th
A ud
B ush
B ord
C ell
D usk
E vent
G ar
J enn
b ill
ti ne
ti ll
tion s
ate ver
to uch
ri d
Wh atever
ack ed
Un touch
ab les
Pe cker
Ar c
193 9
Blood line
Hill bill
wh acked
Bridge s
if er
Heavy we
Sla te
Cle an
Circ us
Char l
Cel eb
Sugar land
Flaming os
wal k
mus ical
Aud rey
Bush whacked
Bord ello
Jenn ifer
Untouch ables
Hillbill ies
Heavywe ights
Celeb rity
2 8
B ank
F iction
H i
H 20
L ater
R ace
d rive
e ur
f ace
r ings
v a
ro pe
ac on
bel ina
er ings
ol maker
ig ger
um belina
Th umbelina
Ch au
dr on
ul dron
ff eur
Wh y
Le ather
Cl ient
Tr igger
Con ne
Off erings
Pop ey
Knight rid
Sen ior
Over drive
Ca uldron
Id olmaker
Mi ke
Freak y
Creep s
Ear rings
Ruth less
Fis hes
Chris tine
Vin ny
Chau ffeur
Leather face
Popey e
Knightrid ers
7 9
C ounty
D ial
F are
G ay
L ie
L amb
M aps
S ac
S oph
T resp
V ist
W ould
b urn
c ast
d ish
w ink
te or
or de
Sh y
Sh ield
Bl ink
ap dish
An nie
Me teor
Mar tian
ass ers
Tr acy
Ap e
Red s
So apdish
Bull wink
Will ow
Lim ey
Jer k
Cho ice
Broad cast
Rec all
Suic ides
Bu ena
Sand s
News ies
rif ice
More au
Conc orde
Fare well
Lamb s
Sac rifice
Soph ie
Tresp assers
Vist a
Bullwink le
w an
en ant
le ctor
ut enant
Mar tians
Col lector
qu ers
Con quers
Heart burn
Mon a
Cand le
Sou p
Tar get
Burn ing
Some where
Mer ry
Sil ent
See king
Desperate ly
orce e
Div orcee
Ball ou
Prison ers
Lie utenant
B acon
K rip
M ate
N ur
N orm
g mat
o id
u ire
or f
Lo cal
os et
im p
ul oid
ire c
ue st
ack down
Cl oset
Pro of
193 5
Pol ish
Run ner
pend orf
Cr ackdown
Mag uire
Nin th
Bet ty
az z
Tri be
Sti gmat
Fron t
Camp us
Cell uloid
Krip pendorf
Mate wan
Nur se
Norm al
Stigmat a
B ounty
C ave
D ug
E u
G um
M ine
P imp
T ell
T ilt
b ec
c a
c id
f ight
i ach
o d
la n
St ag
Re bec
Bl ob
Pla cid
Mar iach
ub lic
High way
Girl fight
tin y
Cla n
ugh t
Ca ught
Vampire s
Here tic
Urban ia
Phant oms
Though t
Flaming o
Shin ing
Mu tiny
Conne ction
Dug an
Gum by
Tell ing
Rebec ca
Mariach i
C ass
F ighter
G orge
H els
H ote
J azz
K und
L uke
b age
on ies
or ious
vi or
el y
ish ment
nd on
ce iving
Be ha
us ade
Ch ain
Sh rew
Re action
197 3
195 2
Ad a
Go onies
For ty
Con ceiving
Time cop
no va
Tre at
Br uce
Cat ch
Cr usade
Son ja
Pa il
Super nova
Comm on
Sto od
Long est
Not orious
urb ing
Doctor s
Soc ial
Stri king
Friend s
Dal las
Tam ing
Inv asion
Dist ance
Dist urbing
Shin es
Butch er
Ly ndon
Log an
Gar bage
rope an
Eu ropean
Gorge ous
Hels ing
Hote l
Kund un
Beha vior
B ay
F ind
L on
N ad
N ick
P aths
P ublic
b l
p lic
t ant
ti plic
uc tant
an te
age ment
id y
De but
Ro ger
ch ildren
ul ty
ff iti
Ac cess
Gl enda
Kiss ed
Hero in
Rich ie
Gra ffiti
Sleep walk
Thin ner
Band its
Fac ulty
Mul tiplic
Rel uctant
Loo king
Eng agement
Cass idy
Find ing
Lon ely
Debut ante
Sleepwalk ers
Multiplic ity
3 D
K ah
L aby
P ul
R ub
S ight
g low
n ers
n app
st al
el ight
un a
Bl ind
Kid napp
rin th
El iz
pe ror
Wish master
Pr ice
After glow
Lim elight
Cab aret
Cross fire
Em peror
Bamb i
Daugh ter
Mel ody
win ners
Cob b
Genius es
Awaken ings
Kah una
Laby rinth
Pul p
Rub ies
Kidnapp ed
5 7
F uri
H ung
h old
en ers
re z
re ts
ter rence
or ph
ed les
De terrence
De edles
Lo ves
Be hold
ath less
ab eth
Pe rez
For get
Dog ma
Sec rets
Fir m
Play ed
Cre ature
Seven teen
Bet ray
Rep ossess
Mer maid
Presid ent
Lou is
Ven us
Cour age
Fright eners
Bre athless
Eliz abeth
57 1
Furi ous
Hung er
Behold er
Betray ed
Repossess ed
H ip
H ush
P anda
h er
j un
o be
in at
an a
um inat
In her
Am az
Gl obe
Ju st
Joe y
iz aire
Tit us
Bel izaire
Cry stal
Sleep y
Ca jun
Ill uminat
Harve y
Inher it
Amaz ing
Illuminat a
R as
en na
to on
am ond
Pic k
Pla toon
qu ake
Ap ost
Earth quake
Bar re
Di amond
10 1
Cas ino
cal s
Conque red
Bron co
Ras cals
Apost le
A yn
K ronos
M ach
i ot
st ore
uc er
Lo ck
Ro an
ff y
In ish
ag edd
Mar nie
Pe st
Com et
ug store
Good night
Dr ugstore
Tra vel
Hell bound
Sa ucer
Sto ck
Da ffy
Smo king
Arm agedd
Pay ne
Char iot
Guard ian
Assass ins
Rela ted
bl ood
Barre ls
Mach ine
Travel er
Armagedd on
Chariot s
5 2
H oop
K no
M ack
O z
P in
om per
ig ade
Bo ond
Me ets
Br igade
Or g
Bird s
Te qui
Cold blood
Wag on
Conque st
Cour t
Season s
Kno ck
Mack enna
Boond ock
Tequi la
Coldblood ed
D row
L add
n ings
An ne
200 5
Cl iff
Tr amp
Car ried
Run nings
Cow girls
Attack s
Nad ine
Drow ning
I ls
J ac
L ily
R ab
S S
T oll
d ger
s ide
le m
Lo dger
Ch ucky
Wh om
Har lem
Road side
az mo
Mind ed
Doll ar
Cho p
Pun ishment
Prophe ts
Rais ing
Abs ent
Suburb ia
Org azmo
Ils a
Jac ob
Toll s
h anger
n ic
in ation
Re ed
ep t
Sw ept
Fire wal
Plan s
Space balls
La id
Assass ination
Ladd er
Cliff hanger
Firewal ker
H uck
J im
k ind
al t
Man kind
ver ick
Bo at
Fri es
Car r
Heart break
Ma verick
ph alt
World s
Vo ice
Not ting
As phalt
Cont act
Sour ce
o ks
w ar
x ie
am ber
un ks
196 4
Dr unks
Tri xie
Pun ch
Jump in
Mont ana
Carr ington
B oun
C oug
G oss
K ent
L ones
i ri
s er
il o
Lo se
Sp awn
man ent
Col lins
Cro oks
Ra il
Room s
Per manent
Tig ers
1970 s
Prim ary
Mont age
Alb um
Switch back
Charl ie
Boun tiful
Coug ar
Goss ip
Kent ucky
Lones ome
D uel
H aw
L in
b it
l um
Ch amber
Li ber
Tw el
Is a
Tal ented
Fr amed
West world
Hood lum
May a
Free way
Generation s
Thunder ball
Andre w
Rip ley
Suburb ans
Vis ion
Bay ou
Rab bit
Liber ty
D rif
J r
K um
R ise
a ver
b io
g ar
De al
Re v
Pla ins
Le uch
Tw ist
Car li
Good man
Har p
ai i
Ben ny
graph ical
Tom my
Je ff
Wedd ings
Na tive
Shall ow
Chair s
Haw aii
Twel ve
Isa iah
Drif ter
Kum ite
Leuch ter
Carli to
G and
W ick
d irector
d irec
ac em
Pe acem
Com es
Br enda
Sw an
Los ing
Qu iz
be red
Imp act
Remem bered
Fantas tic
Gand hi
Wick ed
direc ted
Peacem aker
D 2
e te
v lin
al d
De vlin
Be aver
An ch
Star r
Rock ete
Fire light
Des ign
Aven gers
Hab it
Rockete er
N ix
R oss
T ic
k a
w atchers
el e
an th
ent ary
um entary
Squ all
Clock watchers
Pir ate
At lan
Nix on
N ed
P end
b ear
c les
d ie
e igh
ch er
ul um
Un bear
land o
Air heads
no ir
Aw eigh
pe are
Mus cles
Or lando
Light ness
Sold iers
Glen gar
Shakes peare
Anch ors
Pend ulum
Unbear able
Glengar ry
D rive
G or
I mm
R omy
W il
W ins
c an
f ters
r ic
ie m
Re qu
Am os
ins on
Ed die
ib ly
Ris ky
Mich ele
Rob inson
Gri fters
ont as
Incred ibly
ah ontas
Bus iness
Poc ahontas
bio graphical
Atlan tic
Gor dy
Imm ortal
Requ iem
W atch
o ged
w ro
w rit
ro oged
om orph
ng e
es e
Gre aser
Sc rooged
Time co
Dis aster
Tre es
How ling
Tur vy
rop omorph
Search ing
Che ck
Top sy
Bob by
Lou nge
Freak s
Flir ting
Fis cher
anth ropomorph
wro te
writ ter
Timeco de
anthropomorph ic
P ill
P up
S ir
S orce
z led
ar ac
ic ted
oo zled
ch arac
Bro ther
Ap t
Sw iss
Cr ash
Titan s
Qu ick
John ny
Some one
Rose wood
Gig i
Vol can
Bamb oozled
Add icted
Pill ow
Pup il
Sorce rer
charac ters
Volcan o
D ry
c illa
l o
m ates
s a
end er
ro ad
is cilla
id o
ra ker
Fran ce
Har riet
192 1
Dou g
Gu ido
Room mates
Light s
Pr iscilla
Special s
Fre sh
Den ver
Den ise
D im
E ast
T ide
T aking
on ic
op e
ip per
enn is
Pel ham
Jeff erson
D ad
H ust
M ow
S ign
g li
m en
w ee
American s
us s
Pe e
Cro oklyn
Mad ame
Run s
Moon raker
Ins urrection
Get ting
Bra in
Qu ilt
Val ues
Tig ger
Bal oo
Bron x
Awaken ing
Du ty
Rail road
Mow gli
A ut
E tern
M ne
P ig
R uss
S inger
T il
m onic
n ighter
in able
om inable
enti no
an im
um n
os al
Le ft
Cl own
All nighter
Ab ominable
Hall ways
ec ent
Moon light
Ind ecent
Val entino
Mi key
Prop osal
Bedro oms
Field s
Fell ow
Merc ury
Wil de
Aut umn
Etern ity
Mne monic
1 st
B ait
D az
F ate
G iving
H ale
N avy
a ville
a ison
e tic
u tion
is co
et to
De ceiver
ve red
Ne o
Bo ard
Li aison
Sp ot
Car lo
Mon te
Tal king
Und isco
Cal m
Comp ass
Mc Hale
Haun ted
Clock work
Virt ue
Chair man
Palm etto
Jim my
Hust ler
Daz e
Liaison s
Undisco vered
H us
I de
M atch
M ute
b and
f ran
g s
i tion
n op
w ed
y a
en omen
ti ble
ic ago
is cop
is tible
ho bia
Ch icago
im ming
ch ise
Sh arks
Ar ach
res istible
Po etic
Sw imming
Ph enomen
ook aville
Ins ider
Per iscop
Cry ing
Val our
Scre wed
Pal ookaville
Cond ition
Ir resistible
Alb ino
Simp ly
Str ing
Compass ion
Hus band
Ide al
Match maker
fran chise
nop hobia
Arach nophobia
Phenomen on
Periscop e
F ood
M iser
P all
P atch
l oo
or g
ed ful
ol is
un k
Ne edful
se quen
Ad ams
are r
are lla
Ar row
Gold s
Con sequen
Play er
Sou l
Sm ile
be arer
Light ning
Your s
Lou d
Barb arella
Replacement s
Sara h
Simp atic
Foot loo
Miser y
Pall bearer
Consequen ces
Simpatic o
Footloo se
3 7th
B ind
B ustin
C ai
K in
W oo
c on
m ith
ti l
ad ing
th day
Un til
Le av
Tr ading
Cre ole
Giant s
Hen riet
Bir thday
Sab ote
Sav es
Loo se
Gill ian
Golds mith
Bind s
Cai ro
Leav ing
Henriet ta
Sabote ur
C ube
F ie
H ope
M our
N il
T ender
f ina
p ot
r unk
ter ing
ter house
19 00
at omy
th at
ir teen
Th irteen
Be en
os ure
Sh runk
An atomy
Tr on
Dis cl
ins pot
Tra inspot
Ed ward
ugh terhouse
na il
With nail
Comp uter
Jaw break
Sla ughterhouse
Ext rem
Shel tering
Ly ric
Sara fina
Flo or
Merc ies
Design ated
Fie vel
Mour ner
Thirteen th
Discl osure
Trainspot ting
Jawbreak er
Extrem ities
E ighty
G ould
R V
R ay
T ennis
V ie
W ore
c el
h and
r action
on na
ro om
or hand
it ting
Sh ine
Sp iri
Bro wn
Bri an
Sc iss
Gold finger
Ap pe
Mad onna
roman iac
Leg acy
Ste el
She ep
Bar cel
Att raction
Nine teen
Bow l
Py romaniac
Babys itting
Sho es
Vie w
orhand s
Spiri ts
Sciss orhands
Appe al
Barcel ona
9 8
F if
G am
H av
M any
M ix
o red
s ummer
ti ator
ig old
Pic nic
Ne go
In ten
Me g
Mar igold
Fo rest
ub r
Sw ing
Hard ly
Cr uel
Que ens
Mid summer
Imp ost
Ge org
Ele ment
Splend ored
Ros es
Log ic
Viol ets
Kin ky
Ray s
Fif th
Gam ma
Nego tiator
Inten tions
Marigold s
Impost ors
Georg ia
B ha
F ierce
J ak
M em
M acle
on de
or ies
an n
and er
St ard
un ket
Sh ilo
ver ness
Bl onde
Mar g
Ad am
Go verness
Sc out
ph ant
ull s
Sn akes
Ag ent
1960 s
Fren zy
Sleep away
Pl unket
Net Force
Fro gs
Rela x
Flo ats
Viol ence
Sk ulls
Bha ji
Jak ob
Mem ories
Macle ane
Stard ust
Shilo h
Plunket t
C y
E mer
H el
L uck
j as
ar ning
st as
or ty
ex ander
to ler
St age
ur ice
Sh orty
In toler
Al exander
Le arning
Com a
Ma urice
Jo y
High er
Co ast
Nin jas
Mom ent
But ler
Water ship
Gang stas
qui to
Ber nie
Bab es
Ele phant
Mos quito
Chin ese
Div a
Toy land
Muse um
Meg a
Marg aret
Emer ald
Hel p
Intoler ance
B ent
B att
D ur
H oc
M uri
S olo
V ers
e vent
i ft
o tic
v al
uc ting
ter day
an na
ol ution
ow up
oo ting
De con
Sh ift
Sh ooting
Re ceiver
Se an
Bl owup
Ex otic
Aw fully
Br add
Bel ly
str ucting
Brow ning
Fantas ia
Poc us
Yes terday
Rev olution
Batt ling
Dur ham
Hoc us
Muri el
Vers ion
Decon structing
Exotic a
Bradd ock
P ine
S tin
g uest
st orm
19 16
act ual
House guest
Fire storm
Got ta
Res ort
Gra il
Eag les
Fan ny
Du ets
event s
Pine wood
Stin ks
A dren
G ilm
R h
R ough
W in
al in
ic ho
ill on
sh ine
Sun shine
Cre w
Here af
Term inal
Jer icho
aps ody
sa ti
Adren alin
Gilm ore
Rh apsody
Hereaf ter
F al
F el
N at
T owers
g ot
en z
ic ia
for ce
Pe eping
For got
Life force
Tal ks
Ste ve
Walk about
Over night
Min ors
Rose anna
Fan atic
Care er
Care ful
Deliver y
Sk ip
Fal se
Fel icia
Forgot ten
A ctor
B oo
H y
P ap
en th
en ade
te ly
th ic
ie st
ie vers
ch ka
Sp ice
Par enth
ot chka
Dead er
Go thic
ist enz
Star light
Com ple
Ex istenz
Jo an
Frank ie
Hell o
Happ iest
192 2
upp et
Nin otchka
Bel ievers
Ser enade
Nut s
Howard s
Clock ers
Eng land
Million aire
Mix ed
Boo ty
Pap illon
Parenth ood
Comple tely
A ngu
C ronos
T ing
W av
r ical
z or
us tery
Bl ustery
Sp are
op olis
Dar by
Ju de
Sw amp
iz opolis
Ra zor
Top az
Sch izopolis
Poo h
ser ial
Dim e
Win nie
sati rical
Hy pe
Angu s
Ting ler
Wav es
A ug
C inde
F u
G ann
H il
S it
re lla
end ish
in ity
am ie
ri x
Do c
Am ong
Sn ake
Jack ie
192 8
Dangerous ly
Lar amie
Dance maker
Sur f
Fi endish
Mat rix
Inf inity
Manch u
Russ ia
Nat ty
Aug ust
Cinde rella
Hil ary
Sit ters
A x
P ow
d er
en ger
an cy
de rer
ast rop
Al ice
Fl uke
Fl ipper
ment s
ke teers
Jo b
Cat astrop
Mus keteers
Ver me
Commit ments
Gard ens
Mess enger
Rocket Man
Mur derer
Ax e
Pow der
Catastrop hes
Verme ers
D ut
D war
N az
P ossess
P uppet
W ent
d ome
f s
g r
or a
for t
up ier
Star man
bo at
Com fort
Con vers
Life boat
Cro upier
Heaven ly
Seven th
crim inal
Pie ce
Thunder dome
Kind red
ict ly
Ger man
Chan ces
Ball room
Str ictly
Dwar fs
Naz is
Possess ion
Convers ation
K o
N ancy
S id
te ction
al ous
an ley
200 7
Pro gr
Pro tection
Je alous
az a
Mer cy
Eve rest
Act ress
Harve st
Cy b
Doc umentary
Progr am
Jealous y
K ur
K aza
P and
p ace
19 1
19 19
19 17
ers pace
Lo af
ch man
For ces
Che ap
Er ror
Deliver ance
Mat ter
Follow ing
Sho p
Dut chman
Cyb erspace
Kur t
Kaza am
Pand ora
B oot
R an
S at
T a
p or
Lo ved
Tw enty
2000 s
Sup por
191 5
Boot men
Sat urn
Suppor ting
I M
T ube
g ut
m ass
il ight
St anley
Lo go
ch gut
ass ed
Tw ilight
ep ic
Co re
Br assed
Cr ush
ater mass
Sm illa
Qu atermass
Brave heart
Pin chgut
A by
K ubr
N IM
W id
an is
ow s
Tim my
Will i
Ta o
Aby ss
Kubr ick
NIM H
Wid ows
D ates
L es
O ri
S aw
g age
k roman
q ats
ti k
us ions
ne ath
Ne kroman
Par ents
Ex cess
Ma ting
Mad am
Co uch
Earth bound
Sn atch
Under neath
Sla m
Innoc ents
Box es
Bag gage
Ill usions
Hab its
Arc hes
Court ney
ya anis
Ko yaanis
Ori on
qats i
Nekroman tik
Snatch er
Koyaanis qatsi
C ement
F le
M ed
S is
n atural
w ri
Hol e
Super natural
bla de
Sur prise
Switch blade
Sis ters
F igh
F ury
e es
z en
id i
ie val
He idi
Se ab
Do zen
ort ance
Imp ortance
Fil th
Sub mar
Fle iss
Med ieval
Figh ting
Seab ees
Submar ine
P erson
R omper
V ict
St omper
Rober t
Encoun ter
G ather
re venge
ak a
Bar aka
Gather ing
2 nd
4 2nd
V any
on to
al th
He alth
193 6
inde ad
Bra indead
Tor onto
Cab le
Vany a
F ile
c er
ch io
Bro ke
193 8
Back be
ma il
Search ers
Hor ner
Bre ad
Backbe at
M aking
R ex
W on
uc ible
Black mail
Cr ucible
192 9
Prod uc
Raw head
Vict oria
L ic
g ical
te m
st ri
is m
ve stri
ul tery
Ad ultery
oc chio
olo gical
Sil vestri
Pin occhio
Lic ence
P ran
k ies
ch ological
Trek kies
Pran cer
D ies
G uest
N ia
or row
Fl ies
roman ce
Tom orrow
Produc tions
f am
g ara
il ies
ge ia
Li geia
Dr ama
God s
Anim ated
Nia gara
fam ilies
S atur
g en
u it
ic s
An n
1950 s
anim ated
Satur day
B le
te le
al ian
It alian
Son y
Music al
f un
i hi
s fun
vi ce
Bl iss
dy sfun
Ser vice
ction al
Maj est
Ann ihi
dysfun ctional
Majest y
Annihi lation
of y
Go ofy
Sleep ing
anim ation
Willi ams
ro se
19 20
ber t
Dar ks
En ough
Da vid
Class ics
Screen plays
Holiday s
vis ion
Wins low
wri ter
gen re
tele vision
1920 s
Darks ide
Pri est
1930 s
R ena
mer cy
de tective
iss ance
Golden Eye
Gra mercy
Circ uit
Screen pla
Rena issance
Circuit ry
Screenpla y
T as
f man
Tas te
A ust
E a
G il
b lin
p s
Am blin
Gra pe
Ea ting
Gil bert
st op
is ia
Ch er
Ar tem
ugh n
Je an
Ber n
1940 s
Hang ing
ser ies
Artem isia
D ire
L ughn
b ook
k n
k iller
as a
ap ted
Un kn
Hand book
li ve
Poison er
Mu ir
Lughn asa
Unkn own
C inematograph
K ick
c ou
d oc
p ris
y Tale
en cy
sh ort
Dan ny
El fman
au st
Enter pris
Reg ency
Fair yTale
Van cou
Scream ing
Aust ral
Cinematograph y
Kick ing
doc umentary
Enterpris es
Vancou ver
D ame
f its
s tein
ti s
an to
St ation
ch back
Hun chback
Not re
Bene fits
Span ish
Cri es
Bern stein
D 3
f red
Ad apted
ret te
Som mers
Vir us
Squ anto
Flo rette
Sho re
Sommers by
C ree
g an
r ace
s field
Man sfield
Li ps
em e
Up per
eth nic
Sti ff
Mor gan
work s
Austral ian
Cree k
ethnic ity
F aust
I p
K ol
N ice
R umb
S ous
c ress
r act
z ka
at zka
ur s
ce st
Sh ave
Re ady
ess a
for mist
In cest
New man
ite urs
Con formist
ts man
Sw ord
ugh tsman
Min us
Cont ract
Jul iet
Dra ughtsman
mus ic
Vis iteurs
Dire ction
Ip cress
Kol ya
Rumb le
Sous atzka
H und
I m
M ilo
O d
O tis
s lash
u le
w inter
ate ss
ic ule
ic atess
El mer
Rid icule
Mid winter
Gra eme
Del icatess
Less on
Dy stop
psy chological
Rev ell
Ble ak
Hund red
Od essa
slash er
Delicatess en
Dystop ian
A rist
N ame
Z immer
e vo
j evo
dr ug
ff ic
We b
oc ats
Tra ffic
Jer ky
Sara jevo
Arist ocats
drug s
b oo
i ting
n on
p oli
r ack
ter ror
or id
vi de
He ist
Al fred
ot te
Fl orid
Sl ipper
Ed iting
Psy chological
Cab iri
rem akes
Charl otte
boo ks
poli tical
terror ism
vide o
Florid a
Cabiri a
D irec
K am
M ex
ers u
Lo la
ist s
Ste ph
Fe atures
Doll ars
sport s
Bre athing
tra vel
orph ans
Reed s
Cher ry
Direc ting
Kam en
U ta
d i
v an
in ell
the w
Anim ation
Sam uel
Mat thew
Sign als
Steph en
Uta h
inell i
A F
A ubr
B AF
F es
N elly
T A
f uture
h ous
i ant
r ac
s ex
ti val
ar io
ig os
im on
Li ons
aw ard
ud os
ub ine
Ac id
Ar na
Car men
Am igos
Far inelli
Val iant
Sal udos
Sil ver
Sain t
Luc ie
Bur well
Conc ubine
Willi am
Mex ico
Aubr ac
BAF TA
Fes tival
hous es
Arna ud
B ill
F antasy
H ans
K ath
O re
S um
b a
st ate
ro s
ed ing
un ists
Th ose
us in
it fire
Sp itfire
ens ion
Car o
ort unists
Gr ill
Gr usin
Christ oph
sp y
Dig imon
Opp ortunists
Dim ension
wri ters
Ble eding
di ario
Ore gon
Christoph er
G ab
c rack
v or
st ume
in i
ac ter
ur ance
Th umb
ot t
ag ine
Le e
Tre vor
Co stume
End urance
Fire crack
Can al
Op en
Char acter
Ger m
Im agine
Firecrack er
A sp
E ars
H itch
J ap
J ules
K age
K ans
T rim
l van
m ush
ar k
in ist
il ty
et ta
id ist
co ck
sy lvan
sc hool
Gu ilty
Pr ick
Turn ing
Ros etta
Ke ep
Luc y
Sep tem
Fem inist
Chamber maid
ba um
Asp idist
Hitch cock
Jap an
Kage mush
Kans as
Trim ark
sylvan ia
Septem ber
Aspidist ra
Kagemush a
G n
K ull
L an
M il
M oo
M ight
P enn
P ersu
S ol
T ul
c ontain
d o
g round
h igh
t ran
w est
ro c
uc at
al le
ed ucat
is a
is is
et ts
le g
us etts
ant s
Dead ly
tic les
Ar ticles
193 4
ach usetts
Jo el
Don ald
Met rop
Cr isis
io Canal
Stud ioCanal
Mass achusetts
Under ground
Bet te
Break er
North west
Cab alle
Mor ant
Are a
Fan cy
Conque ror
Ke ys
clip s
Mob ile
Court room
Gn ome
Moo re
Persu asion
Sol ar
Tul sa
contain ing
tran sport
educat ors
Metrop olis
Caballe ros
L isa
M edi
N i
d es
h ist
m os
ti al
ter ran
or ical
le en
Man on
Ch uck
os mos
Mo ving
Sc ott
ian s
sc rew
How l
Ste ven
be h
Tri ad
oli as
Magn olias
Rand y
Sour ces
Mic roc
Prison er
Russ ell
music ians
Kath leen
Gab beh
Japan ese
Lan tern
Medi terran
hist orical
screw ball
Microc osmos
Mediterran e
B B
J ar
K enn
M ap
M ain
P ont
U m
b ian
d u
p ar
s an
s uic
u f
v are
art s
el f
inter rac
us ing
Ne uf
Al vare
Gre g
Car av
Am ants
Dream Works
ber g
Leg s
Super girl
Bel le
Arti san
lla s
Char les
bour g
bre llas
Les bian
Cher bourg
Penn sylvania
Mediterrane o
BB C
Jar re
Main e
Um brellas
suic ide
interrac ial
Alvare z
Carav an
1 1
G os
J on
M ac
c ap
p el
p un
p aths
s ti
z er
z ipped
el man
of f
et te
De an
it al
Ro pes
Un zipped
Mar tin
20 11
Gl ob
Ju ly
Ed elman
cho paths
Fe ast
ord ing
Gra zer
ual ity
psy chopaths
Acc ording
Germ inal
Kenn edy
Gos pel
cap ital
pun ishment
sti t
Glob us
1 8
D er
D ennis
H ound
K O
K a
M ina
R KO
T ou
T ann
a vi
b ud
f er
g ender
l on
r ick
s ter
s ol
en baum
ro tic
De b
Sh at
An ton
Mar ks
Le on
Go lan
Wal sh
All en
Con ti
Car ib
Mus sol
Fun house
be an
cl o
Te a
Che f
Real m
Pat rick
Sens es
Trans gender
Turn s
Pir ates
Ke vin
Destin y
Chris tian
Cy clo
Ka hn
Tou lon
Tann enbaum
avi ation
bud dy
Carib bean
Mussol ini
B is
G an
G ib
G amb
M and
N os
O tello
P ath
R al
c i
d is
o ch
s ub
w eg
en ter
te red
ti more
st ree
ex uality
mer ica
is o
at u
as ite
le ans
De p
it ary
Man n
Par asite
ner y
mo tion
actor s
El stree
Har ris
Cat walk
So las
Parad iso
Ind och
Or leans
be weg
Gro up
Will is
Mary land
Dem i
Rob ot
Color ado
urb ia
Sal t
Da vis
Gang ster
Low ell
La merica
Bal timore
Marsh all
Verd ict
Insom nia
Nad ja
Mix ing
Im age
leg al
par ody
Greg son
fer atu
Shat tered
Anton ia
Bis exuality
Gan z
Nos feratu
Path é
Ral ph
dis aster
sub urbia
Indoch ine
beweg te
C us
D ersu
E rotic
G ol
H ana
N er
N ough
P ather
S ar
S elf
T ets
U z
Z ed
b i
c ent
f l
f ia
h ut
i el
i ve
k well
l ie
n io
n ib
p ort
u o
v ous
v all
w edd
re fl
end ent
in er
al i
al co
al ism
ed our
ex ive
to sc
ic ations
at on
un ications
Ro tosc
ch an
ch no
ch ali
Sh ort
In kwell
op ed
We ins
fe ature
Mar c
Cl int
Con nery
Ma fia
ep endent
Stre ep
Pol edour
El li
Gl enn
ian o
sc ope
En nio
Comm unications
Ind ependent
Green hut
Ver ge
Break down
Can nib
ound t
Te chno
Bas il
Mer yl
Ham mer
Search light
Mor ric
Er ic
Effect s
ino is
San ju
Inter scope
hol ism
Pan chali
bus iness
mar tial
Ke aton
Ill inois
Du vall
pro stit
Vis ual
Fiction al
East wood
do gs
Ni ro
Deb ney
Gib son
Salt men
Cus ack
Ner vous
Nough ts
Tets uo
Uz ala
wedd ings
refl exive
alco holism
Rotosc oped
Weins tein
Poledour is
Cannib alism
Morric one
Sanju ro
prostit ution
2 5
C ure
D ian
F itz
I ra
I sh
J ona
K ama
L ang
L alo
P iano
S u
S of
S ut
S iss
S tein
b orn
c hes
c ont
h un
h um
k ins
l ó
m ond
n uc
n baum
o y
p enter
r d
s il
s oundt
y le
en ity
ro vers
el ection
enti is
er ue
the ast
et rope
ri age
ad ap
le ar
St al
Film 4
Th irty
us ers
Man fred
de ath
im an
Ro th
Bo ston
ap ocalyp
Li on
Sp ain
Bro ugh
New born
ant on
man n
Wal ter
Wal lace
Car penter
Dan iel
els en
ther n
ther land
Gr ant
ian a
sc enity
Space k
Fr uit
Tit le
graph ies
Sou theast
Sou thern
Old man
apon s
Green berg
Tro users
Vo ight
Qu in
Te acher
Del erue
if rin
Sha iman
Band it
Sla ter
George s
Fac ing
Bir nbaum
Sav oy
Jul ian
Boil ed
Laur entiis
Ob scenity
tation s
ray als
Sch ifrin
Richard son
Ir ish
ral do
Luc ches
Present ation
Dun away
car raldo
Bio graphical
Zo etrope
we apons
Louis iana
Rab in
bio graphies
Wil son
Les lie
Drama tic
Dire ct
Zimmer man
rack s
rac ism
Germ any
Mil itary
Ni elsen
Dian e
Fitz carraldo
Ish am
Jona h
Su therland
Sof t
Sut ra
Siss y
cont rovers
hum or
nuc lear
sil ent
soundt racks
election s
adap tations
Manfred ini
apocalyp tic
Brough ton
Lucches i
controvers ies
A k
B a
B art
C ap
C und
C iner
E s
F ist
F onda
H of
H os
H op
L ind
N ich
N ico
P on
T ed
T ay
T amp
c tic
f ar
i enti
i ak
j ustice
l or
l ife
m i
m is
m ul
n ar
p son
p uppet
r ad
r ze
r ader
t ter
u age
w art
end s
ti ple
ti sts
ar tists
la tter
ro y
in ot
il ton
film maker
is ch
is lands
am o
am as
et ti
ol son
ig an
ig ious
and on
th y
St anton
ir a
De ak
ce mi
Th ai
ch ant
Sp latter
Sp inot
Al bert
op o
ag li
Mar tial
Le o
It aly
Ar non
ite l
qu ette
oc aust
ang els
Hol ocaust
No va
sc ienti
Ph one
And rze
Sea far
ile y
Road show
Cur tis
Far away
Mys elf
na h
Walk en
Carol co
ha us
Ge off
Mer chant
Ham ilton
urb an
fiction al
Jul ia
Thom pson
Wood y
Mons ters
Rel igious
Sch rader
Jam ie
Ros en
Ger ald
Ir win
Make up
Ke itel
Bus cemi
car riage
kow iak
Lead ing
Rud in
Susan nah
Conne ctic
bl um
Russ ian
Vict or
Mil chan
leg ends
Steven son
Leon ard
Leon etti
Gamb ling
Dep artment
Gol in
Sar andon
cent ury
port rayals
Lang uage
hun t
Ba iley
Bart kowiak
Cund ey
Ciner gi
Fist ful
Hof fman
Hos kins
Hop per
Nich olson
Nico las
Pon ette
Tay lor
Tamp opo
mis carriage
mul tiple
puppet ry
Deak ins
Thai land
Spinot ti
scienti st
Andrze j
Seafar ing
Geoff rey
Connectic ut
2 3
A A
A sh
B ates
B oss
C age
C ath
D ri
D ustin
E on
F ent
G C
G ord
H ong
H anley
I v
I con
J ay
K u
L en
L us
M P
M ol
N on
N ie
N atal
N itz
O h
P es
P ho
R ó
R ic
R ow
S ig
T en
U GC
V a
V ig
W ard
W ink
Y o
a id
a ism
b ber
b ution
c c
c ro
c inema
c raft
d uc
e ball
g h
i to
i at
i ke
i lan
j im
j our
k amp
k ló
l ings
l isch
m enti
m ade
n al
n el
n old
r mann
s ence
u dr
u iz
y k
z sa
en ix
te ve
te ls
ti es
ar on
la nie
ro ck
ro bber
ter restrial
or in
or man
ate ful
in to
vi au
pre sence
il io
an iz
er y
er ator
er ated
The o
of alo
as ha
ri o
ri el
ri an
ri bution
ad apted
th al
th au
comp uter
De press
un s
Th orin
Be acon
Man cin
ra ub
ra pe
ra tive
ra terrestrial
im ag
ch iat
Sh ap
Ne ill
Se ed
Se ale
Sp en
Sp ike
Bro cc
ff ith
An thon
Do yle
Wh oop
op erator
We int
aw a
sh er
Me ph
Me lanie
ab duc
Mar ine
Le igh
ist o
Sc he
Ar quette
Ar nold
Gold man
Gold berg
ens on
ep h
ther ton
ip es
air pla
ts bur
bas ketball
bas eball
tin a
Gr ateful
sc he
Leg al
Leg uiz
ext raterrestrial
Ph il
Tra vis
io d
Ste wart
Sn ipes
Cor man
Cor ps
Angel o
Gen a
Cla ude
Her rmann
Golden thal
Nin o
Gu iller
Bad ala
Ind ia
ness ee
Mas on
Boy d
Qu aid
be fore
Can non
Mich igan
Hur t
Wes ley
Jud aism
Crow e
olo gy
Ham lisch
if ting
Da viau
Mi kló
Gri ffith
Cle ese
Witch craft
Pat ric
Em b
Em ma
Em ilio
Ber ger
Barb ara
Tran sylvania
Kl ine
Ear l
Ban cro
Sub stit
Sand e
Wag ner
Mat thau
Pit tsbur
Dist ribution
Jane ane
Mur ray
Chan nel
esh ifting
Bron son
Ke an
Ry sher
Marsh a
Simp son
psy chiat
Jew s
Chas ers
60 s
Hug hes
Chris tina
80 s
line ar
Gar ofalo
Jeff rey
anth ology
Doug las
org aniz
sati re
Nat asha
Doc udr
Produc tion
gen erated
tele presence
Bern ard
Austral ia
Kath y
ros awa
Gab riel
18 60s
18 80s
Gamb on
Mand el
Elli ot
Elli ott
Stein kamp
Stal ker
Quin n
Julian ne
Ak ira
Es teve
nar rative
23 rd
Boss a
Dri ver
Fent on
Gord on
Iv ory
Ku rosawa
Len nie
Lus ke
MP AA
Non linear
Nie haus
Natal ie
Nitz sche
Oh io
Pes ci
Pho enix
Ró zsa
Ric ci
Row lands
Ten nessee
Vig ilan
Wink ler
Yo jim
jour nal
robber y
Depress ion
Mancin i
imag ery
Shap eshifting
Brocc oli
Anthon y
Whoop i
Weint raub
Meph isto
abduc tion
airpla nes
Leguiz amo
Badala menti
Mikló s
Bancro ft
Substit ute
Pittsbur gh
organiz ed
Docudr amas
Esteve z
Vigilan te
Yojim bo
journal ists
0 s
A ur
A id
B ond
C ant
D om
D illon
E v
F ina
F raker
G é
G rod
G em
G ale
H ir
H urd
H ugh
H amb
H enson
I l
I an
J an
J ip
J oss
J enna
K as
K ow
K im
K em
K ris
K yle
L u
L á
L il
L ach
L au
L ance
L akes
L ena
L uise
L lo
M ü
M am
M att
N ol
N yk
N uns
O g
O k
O lin
P low
P iper
P agli
R ook
S ven
S iod
T i
T ow
T ele
W a
W ex
W at
Y or
Y ared
Z an
Z ha
Z eme
a ug
b ins
c s
c ina
c ord
c ars
c ient
d le
d ress
d ern
e ville
e ves
e rotic
f re
f ill
g n
g å
g io
h y
h om
h orn
j na
k i
k ell
l en
l ican
l oon
m in
m il
m ak
m our
n et
n ell
o thy
p unk
r ight
r ard
s z
s la
s ch
s ib
u ting
v á
v é
w ish
x i
y d
y mour
z a
z el
z man
re l
end an
st an
art off
la k
la hom
ro thy
or is
in man
in ations
om kin
al ty
ed on
com ics
ac hes
vi st
ex per
el le
el eph
er ner
he y
he ro
ic ism
mer on
ge s
19 10
Engl und
the son
ing o
ing rad
es is
am us
am nes
ol icism
ri a
ri ks
ad ling
le bury
le ana
le ges
St or
St an
comp uting
ay kin
ay ze
ent al
De hn
De Luise
ight on
un ivers
ho re
ho tels
it ri
Man cina
ck is
Ch artoff
Ch aykin
ie u
ne ar
Mo thers
ill ip
im ental
Ro y
ch n
Sh amber
Sh aron
Re iner
Re eves
ver y
Ne il
Se m
Se ymour
Bo orman
ast rona
Sp ort
ard ieu
An ti
Do rothy
ath air
Al fre
Wh edon
ag anda
We bs
We aver
ant lebury
sh ire
Pla tt
man ian
Ad rian
Le ighton
ass y
ass ass
Sc antlebury
Cl ory
King dom
ub lican
ss on
Gold blum
Tr und
Tim othy
To ky
Con rad
Con aug
Con stan
Rock well
Car l
Car y
Ma ury
Ma theson
Jo anna
Jo di
av ant
our ney
mo dern
air port
ber punk
Pol lak
Don ner
Co x
Co en
ick man
ple horn
Br endan
Br ickman
Sw ayze
Sl im
Ph illip
ful fill
Beau ties
Red ford
Nightmare s
Ed gar
Her vé
Ter ry
Fr aser
Play ers
Tur ner
Super hero
Mir anda
ll er
Bar r
Bar agli
ones e
Dou manian
Crim inal
Fe ature
Rem ar
Mid ler
Or mond
Rich mond
Kar l
Je anne
be aches
Cry onic
Dem ons
tain ers
Rob by
Rob bins
Di Cap
Ca meron
Sti ers
Hen riks
Rep ublic
Rep ublican
Dam me
Rose anne
Mor se
fore sts
Sin ise
Pre gn
Mut ual
foot ball
Gri er
Mc D
Mc Clory
Mc Conaug
Port man
Prop aganda
kin esis
Trip plehorn
ars gå
Peter man
Bon t
Laur ence
Wood ard
Pay mer
Post modern
2010 s
Army an
ah l
Bre therton
Fell ner
Arth urian
Den zel
Canad a
Cam cord
Land au
col leges
Dun n
Stella n
Str adling
Str athair
Sk arsgå
Has kell
Chris tie
Sher man
Geronim i
bro thers
Apocalyp tic
Av net
Vin ce
Vin cent
stal king
Pick ens
Diamond s
gar de
Atlan ta
Dim itri
Hust on
anim als
Kin near
1900 s
Cy berpunk
Win ston
Surf ing
Dut ton
Ko vá
Ta xi
Aust ria
Mex ican
sex uality
ba ugh
Mil ius
Mac chio
Mac Lach
Mand eville
enter tainers
Dep ardieu
Gol go
Stein er
Stal ingrad
Quin lan
Cap ito
Lind a
roy alty
Rosen man
Rosen blum
Gerald ine
Leonard o
Ash ton
Cath olicism
Mol ina
Sig ourney
Va jna
Ward en
Spen cer
Sche inman
Phil ip
Guiller min
Patric ia
Emb assy
Kean u
psychiat ry
Aid an
Cant onese
Ev ans
Gé rard
Grod in
Hir sch
Il leana
Jip ing
Kow loon
Kem per
Kris tin
Lu ze
Lá sz
Lil i
Lau rie
Lakes hore
Llo yd
Mü ller
Mam et
Nol te
Nyk vist
Og den
Ok lahom
Plow right
Rook er
Siod mak
Ti omkin
Tow ne
Tele kinesis
Wex ler
Wat kin
Yor am
Zan uck
Zha o
Zeme ckis
dress ing
mil itary
sla very
sib lings
exper imental
eleph ants
1910 s
amnes ia
univers ities
Mothers baugh
Shamber g
astrona uts
Sport s
Webs ter
assass inations
Trund y
Toky o
Constan tin
airport s
Phillip pe
fulfill ment
Cryonic s
DiCap rio
Henriks en
Pregn ancy
McConaug hey
Camcord er
Strathair n
Skarsgå rd
Ková cs
MacLach lan
Capito l
Lász ló
Oklahom a
