{"<s>":0,"<pad>":1,"</s>":2,"<unk>":3,"<mask>":4,"!":5,"\"":6,"#":7,"$":8,"%":9,"&":10,"'":11,"(":12,")":13,"*":14,"+":15,",":16,"-":17,".":18,"/":19,"0":20,"1":21,"2":22,"3":23,"4":24,"5":25,"6":26,"7":27,"8":28,"9":29,":":30,";":31,"<":32,"=":33,">":34,"?":35,"@":36,"A":37,"B":38,"C":39,"D":40,"E":41,"F":42,"G":43,"H":44,"I":45,"J":46,"K":47,"L":48,"M":49,"N":50,"O":51,"P":52,"Q":53,"R":54,"S":55,"T":56,"U":57,"V":58,"W":59,"X":60,"Y":61,"Z":62,"[":63,"\\":64,"]":65,"^":66,"_":67,"`":68,"a":69,"b":70,"c":71,"d":72,"e":73,"f":74,"g":75,"h":76,"i":77,"j":78,"k":79,"l":80,"m":81,"n":82,"o":83,"p":84,"q":85,"r":86,"s":87,"t":88,"u":89,"v":90,"w":91,"x":92,"y":93,"z":94,"{":95,"|":96,"}":97,"~":98,"¡":99,"¢":100,"£":101,"¤":102,"¥":103,"¦":104,"§":105,"¨":106,"©":107,"ª":108,"«":109,"¬":110,"®":111,"¯":112,"°":113,"±":114,"²":115,"³":116,"´":117,"µ":118,"¶":119,"·":120,"¸":121,"¹":122,"º":123,"»":124,"¼":125,"½":126,"¾":127,"¿":128,"À":129,"Á":130,"Â":131,"Ã":132,"Ä":133,"Å":134,"Æ":135,"Ç":136,"È":137,"É":138,"Ê":139,"Ë":140,"Ì":141,"Í":142,"Î":143,"Ï":144,"Ð":145,"Ñ":146,"Ò":147,"Ó":148,"Ô":149,"Õ":150,"Ö":151,"×":152,"Ø":153,"Ù":154,"Ú":155,"Û":156,"Ü":157,"Ý":158,"Þ":159,"ß":160,"à":161,"á":162,"â":163,"ã":164,"ä":165,"å":166,"æ":167,"ç":168,"è":169,"é":170,"ê":171,"ë":172,"ì":173,"í":174,"î":175,"ï":176,"ð":177,"ñ":178,"ò":179,"ó":180,"ô":181,"õ":182,"ö":183,"÷":184,"ø":185,"ù":186,"ú":187,"û":188,"ü":189,"ý":190,"þ":191,"ÿ":192,"Ā":193,"ā":194,"Ă":195,"ă":196,"Ą":197,"ą":198,"Ć":199,"ć":200,"Ĉ":201,"ĉ":202,"Ċ":203,"ċ":204,"Č":205,"č":206,"Ď":207,"ď":208,"Đ":209,"đ":210,"Ē":211,"ē":212,"Ĕ":213,"ĕ":214,"Ė":215,"ė":216,"Ę":217,"ę":218,"Ě":219,"ě":220,"Ĝ":221,"ĝ":222,"Ğ":223,"ğ":224,"Ġ":225,"ġ":226,"Ģ":227,"ģ":228,"Ĥ":229,"ĥ":230,"Ħ":231,"ħ":232,"Ĩ":233,"ĩ":234,"Ī":235,"ī":236,"Ĭ":237,"ĭ":238,"Į":239,"į":240,"İ":241,"ı":242,"Ĳ":243,"ĳ":244,"Ĵ":245,"ĵ":246,"Ķ":247,"ķ":248,"ĸ":249,"Ĺ":250,"ĺ":251,"Ļ":252,"ļ":253,"Ľ":254,"ľ":255,"Ŀ":256,"ŀ":257,"Ł":258,"ł":259,"Ń":260,"en":261,"te":262,"re":263,"end":264,"on":265,"ti":266,"ar":267,"st":268,"art":269,"start":270,"la":271,"ro":272,"rod":273,"prod":274,"uc":275,"produc":276,"ter":277,"tion":278,"rela":279,"product":280,"relation":281,"or":282,"ate":283,"ory":284,"gory":285,"ategory":286,"in":287,"om":288,"al":289,"ed":290,"ou":291,"com":292,"ac":293,"ty":294,"vi":295,"ous":296,"ex":297,"ted":298,"tern":299,"el":300,"enti":301,"pre":302,"inter":303,"mend":304,"recom":305,"acted":306,"vious":307,"extern":308,"entity":309,"previous":310,"interacted":311,"mended":312,"recommended":313,"external":314,"il":315,"to":316,"ong":317,"bel":318,"category":319,"belong":320,"ilm":321,"film":322,"Category":323,"films":324,"an":325,"er":326,"ng":327,"he":328,"ic":329,"mer":330,"ican":331,"Amer":332,"American":333,"is":334,"The":335,"ge":336,"19":337,"age":338,"ish":339,"ngl":340,"ngu":341,"Engl":342,"English":343,"langu":344,"language":345,"199":346,"the":347,"of":348,"ing":349,"es":350,"at":351,"am":352,"et":353,"ol":354,"ig":355,"by":356,"as":357,"and":358,"ri":359,"ad":360,"le":361,"th":362,"St":363,"II":364,"ur":365,"igh":366,"comp":367,"ay":368,"ir":369,"ow":370,"produced":371,"any":372,"ent":373,"prodcomp":374,"prodcompany":375,"oo":376,"id":377,"ure":378,"De":379,"nd":380,"ve":381,"ight":382,"ers":383,"Lo":384,"ce":385,"un":386,"um":387,"198":388,"Film":389,"Th":390,"Be":391,"ut":392,"ho":393,"us":394,"it":395,"ly":396,"Man":397,"ck":398,"Ch":399,"ra":400,"os":401,"ie":402,"ures":403,"Films":404,"00":405,"de":406,"He":407,"Pic":408,"ne":409,"Pict":410,"ood":411,"Mo":412,"ill":413,"im":414,"Ro":415,"ak":416,"ch":417,"dr":418,"all":419,"Sh":420,"ul":421,"Re":422,"ama":423,"ire":424,"ity":425,"ver":426,"Ne":427,"Se":428,"Pictures":429,"Bo":430,"1990":431,"ct":432,"Bl":433,"ap":434,"ue":435,"1995":436,"ry":437,"ast":438,"edy":439,"ess":440,"Li":441,"1996":442,"rom":443,"for":444,"drama":445,"comedy":446,"1997":447,"Sp":448,"My":449,"Bro":450,"ff":451,"In":452,"Par":453,"Night":454,"ard":455,"1999":456,"ia":457,"An":458,"Do":459,"1990s":460,"Part":461,"em":462,"ath":463,"one":464,"Love":465,"Al":466,"Wh":467,"ation":468,"New":469,"op":470,"ot":471,"Day":472,"ag":473,"ack":474,"You":475,"War":476,"ven":477,"197":478,"1994":479,"200":480,"oun":481,"196":482,"red":483,"We":484,"ith":485,"aw":486,"1998":487,"old":488,"Bri":489,"ant":490,"fe":491,"Un":492,"195":493,"ain":494,"III":495,"ome":496,"ran":497,"vil":498,"Gre":499,"ld":500,"sh":501,"ell":502,"Me":503,"up":504,"ud":505,"ond":506,"ab":507,"Pla":508,"ount":509,"land":510,"man":511,"ork":512,"City":513,"Mar":514,"ace":515,"se":516,"Bla":517,"out":518,"Ad":519,"ner":520,"Dead":521,"are":522,"ine":523,"Le":524,"Go":525,"ial":526,"tle":527,"ass":528,"iv":529,"It":530,"Fo":531,"ist":532,"Last":533,"ouse":534,"Sc":535,"ice":536,"Men":537,"Star":538,"dy":539,"with":540,"tic":541,"Pe":542,"ctor":543,"Cl":544,"bo":545,"King":546,"ub":547,"urn":548,"ss":549,"Tw":550,"Ac":551,"iss":552,"Ar":553,"ys":554,"set":555,"Col":556,"from":557,"ild":558,"vent":559,"Wal":560,"ite":561,"Bros":562,"For":563,"Com":564,"Big":565,"Gold":566,"Tr":567,"umb":568,"ind":569,"Tim":570,"qu":571,"vie":572,"All":573,"Ap":574,"194":575,"Warner":576,"To":577,"Fri":578,"Con":579,"ion":580,"Ab":581,"ear":582,"own":583,"Out":584,"Ex":585,"Mr":586,"oc":587,"Kid":588,"2000":589,"Fl":590,"Rock":591,"ment":592,"rin":593,"act":594,"Kill":595,"hot":596,"ug":597,"Pro":598,"ens":599,"Movie":600,"Car":601,"Heart":602,"irl":603,"House":604,"but":605,"ide":606,"193":607,"ke":608,"Story":609,"Ma":610,"Ang":611,"ang":612,"amp":613,"York":614,"ort":615,"20":616,"ach":617,"Hol":618,"ence":619,"star":620,"Advent":621,"ame":622,"Jo":623,"Good":624,"ittle":625,"ings":626,"High":627,"Death":628,"Dog":629,"av":630,"ream":631,"our":632,"Time":633,"One":634,"Home":635,"ep":636,"mo":637,"No":638,"ise":639,"orld":640,"Dan":641,"compos":642,"els":643,"ron":644,"Great":645,"actor":646,"Way":647,"ph":648,"shot":649,"Fran":650,"Girl":651,"day":652,"irector":653,"Am":654,"Life":655,"res":656,"Black":657,"Cro":658,"co":659,"ney":660,"ther":661,"ors":662,"Dr":663,"ip":664,"ting":665,"1993":666,"Air":667,"night":668,"Mad":669,"Ey":670,"ator":671,"Dream":672,"Director":673,"Mon":674,"tish":675,"British":676,"rim":677,"no":678,"debut":679,"starred":680,"Directorial":681,"Days":682,"Stre":683,"Dis":684,"Street":685,"Lost":686,"Two":687,"oman":688,"Blue":689,"On":690,"ull":691,"Tre":692,"Little":693,"13":694,"Friday":695,"Blood":696,"air":697,"ble":698,"World":699,"per":700,"ich":701,"Af":702,"ber":703,"Aw":704,"ury":705,"Pol":706,"Is":707,"About":708,"Don":709,"und":710,"El":711,"ror":712,"Fly":713,"ited":714,"ree":715,"1992":716,"Co":717,"ick":718,"Frank":719,"uch":720,"Sec":721,"uck":722,"Boys":723,"ountry":724,"ivers":725,"Univers":726,"Universal":727,"au":728,"End":729,"Ret":730,"Return":731,"ple":732,"Dar":733,"les":734,"Up":735,"een":736,"Back":737,"eth":738,"ts":739,"Br":740,"Who":741,"Run":742,"pe":743,"ning":744,"ump":745,"roman":746,"my":747,"Gl":748,"Har":749,"reak":750,"bas":751,"tein":752,"That":753,"ary":754,"ird":755,"Po":756,"inde":757,"Best":758,"Hall":759,"ville":760,"1986":761,"Eart":762,"Earth":763,"ies":764,"Gho":765,"Ghost":766,"tin":767,"amount":768,"Paramount":769,"enstein":770,"Frankenstein":771,"Gr":772,"sy":773,"iver":774,"oon":775,"oll":776,"ian":777,"Cat":778,"13th":779,"Ju":780,"Sw":781,"app":782,"Tal":783,"aven":784,"Fall":785,"Cent":786,"ec":787,"ets":788,"United":789,"sc":790,"Fire":791,"att":792,"Columb":793,"Columbia":794,"inal":795,"oney":796,"How":797,"ape":798,"Sup":799,"Leg":800,"Fox":801,"Plan":802,"king":803,"ger":804,"ake":805,"ext":806,"Sl":807,"Next":808,"mas":809,"ins":810,"ier":811,"urd":812,"Hard":813,"uff":814,"ush":815,"Tex":816,"God":817,"Des":818,"Ph":819,"ase":820,"Met":821,"Space":822,"Moon":823,"based":824,"ful":825,"pend":826,"romantic":827,"Disney":828,"Party":829,"Beau":830,"Red":831,"What":832,"ks":833,"ret":834,"Cr":835,"Kiss":836,"rist":837,"Tra":838,"adem":839,"Academ":840,"Academy":841,"Legend":842,"ato":843,"Bat":844,"ose":845,"olf":846,"Christ":847,"Thing":848,"ai":849,"Hell":850,"io":851,"Fear":852,"inem":853,"Devil":854,"Young":855,"ula":856,"1988":857,"Sun":858,"1980":859,"Ben":860,"Texas":861,"ummer":862,"Son":863,"Fam":864,"Fir":865,"Down":866,"Cop":867,"Ste":868,"Wild":869,"20th":870,"Century":871,"ust":872,"Child":873,"aby":874,"ny":875,"Walt":876,"Paris":877,"Sn":878,"Cor":879,"Angel":880,"iller":881,"1978":882,"Trek":883,"mare":884,"White":885,"Dark":886,"independ":887,"independent":888,"Nightmare":889,"less":890,"rip":891,"Stud":892,"Gen":893,"ily":894,"Bride":895,"Mass":896,"Hill":897,"vels":898,"Ed":899,"ates":900,"En":901,"ios":902,"Joe":903,"Cand":904,"Studios":905,"ook":906,"Off":907,"Mrs":908,"Nation":909,"ves":910,"Cla":911,"Hero":912,"antas":913,"Happ":914,"Pa":915,"Ag":916,"Aff":917,"cho":918,"Her":919,"Summer":920,"Ter":921,"Stran":922,"Jack":923,"ton":924,"Adventures":925,"oot":926,"Golden":927,"Fla":928,"ues":929,"Police":930,"She":931,"Planet":932,"eg":933,"Prin":934,"192":935,"Fr":936,"Wish":937,"iz":938,"Play":939,"Tur":940,"ball":941,"Super":942,"upp":943,"Adventure":944,"So":945,"Heaven":946,"First":947,"Mir":948,"ock":949,"wn":950,"Die":951,"True":952,"Mag":953,"tive":954,"Mus":955,"ll":956,"thing":957,"Christmas":958,"Baby":959,"ft":960,"ters":961,"West":962,"ady":963,"And":964,"tery":965,"Parad":966,"composer":967,"Que":968,"wood":969,"acre":970,"Massacre":971,"ica":972,"ighty":973,"Family":974,"Murd":975,"ib":976,"Ins":977,"Get":978,"ina":979,"Cre":980,"Hood":981,"Woman":982,"Rocky":983,"Bar":984,"mp":985,"ones":986,"Miss":987,"Los":988,"Pri":989,"Nin":990,"ison":991,"Mupp":992,"ving":993,"ore":994,"Club":995,"novels":996,"dren":997,"Seven":998,"Blues":999,"composed":1000,"Sim":1001,"Dou":1002,"Gu":1003,"Crim":1004,"Gun":1005,"Wond":1006,"Wonder":1007,"Tit":1008,"gra":1009,"graph":1010,"Ci":1011,"Hun":1012,"Und":1013,"Psy":1014,"Tom":1015,"illy":1016,"Fool":1017,"Sou":1018,"ister":1019,"Secret":1020,"country":1021,"National":1022,"Comm":1023,"nie":1024,"here":1025,"ower":1026,"States":1027,"Holly":1028,"Beach":1029,"Gi":1030,"Rain":1031,"oween":1032,"Halloween":1033,"Cra":1034,"atch":1035,"Psycho":1036,"Esc":1037,"Sea":1038,"Escape":1039,"Year":1040,"Body":1041,"ugh":1042,"Airp":1043,"Mighty":1044,"ater":1045,"eld":1046,"Bad":1047,"Old":1048,"Bull":1049,"Rid":1050,"Got":1051,"Game":1052,"Eyes":1053,"Ass":1054,"ance":1055,"Show":1056,"Sex":1057,"ma":1058,"Ind":1059,"Ala":1060,"Fe":1061,"ildren":1062,"apon":1063,"1985":1064,"Green":1065,"orror":1066,"acula":1067,"Dracula":1068,"Weapon":1069,"1989":1070,"ile":1071,"Sm":1072,"ky":1073,"akes":1074,"quel":1075,"Bel":1076,"gin":1077,"ave":1078,"Sa":1079,"ience":1080,"awn":1081,"Money":1082,"ley":1083,"Paradise":1084,"Fish":1085,"Action":1086,"Iron":1087,"Rem":1088,"ord":1089,"Under":1090,"Mid":1091,"Girls":1092,"ect":1093,"ness":1094,"away":1095,"Gener":1096,"Or":1097,"Rich":1098,"Road":1099,"ane":1100,"ces":1101,"ade":1102,"ather":1103,"Max":1104,"ityville":1105,"Amityville":1106,"Motion":1107,"itch":1108,"3F":1109,"Mal":1110,"Pres":1111,"riller":1112,"thriller":1113,"atograph":1114,"inematograph":1115,"Ra":1116,"ains":1117,"Meet":1118,"rop":1119,"1960":1120,"Line":1121,"Bud":1122,"Face":1123,"Hollywood":1124,"Titan":1125,"Tro":1126,"Was":1127,"ja":1128,"action":1129,"Three":1130,"Room":1131,"Cal":1132,"Pop":1133,"Ver":1134,"Vo":1135,"aur":1136,"When":1137,"Mas":1138,"May":1139,"Park":1140,"Bra":1141,"cinematograph":1142,"ople":1143,"People":1144,"Mom":1145,"let":1146,"oug":1147,"Affair":1148,"Boy":1149,"Bet":1150,"ix":1151,"Never":1152,"Free":1153,"Ever":1154,"sp":1155,"illa":1156,"about":1157,"Sto":1158,"Murder":1159,"iction":1160,"Kar":1161,"Apes":1162,"1987":1163,"Lady":1164,"Final":1165,"Things":1166,"ien":1167,"Eye":1168,"Giant":1169,"ife":1170,"Harry":1171,"bla":1172,"hatt":1173,"Manhatt":1174,"aker":1175,"Manhattan":1176,"Mum":1177,"Wife":1178,"Children":1179,"Roman":1180,"ield":1181,"nia":1182,"oss":1183,"Veg":1184,"Vegas":1185,"Knight":1186,"Cur":1187,"Ser":1188,"hn":1189,"Cow":1190,"Qu":1191,"ifor":1192,"ifornia":1193,"way":1194,"But":1195,"Res":1196,"From":1197,"Tar":1198,"edd":1199,"Je":1200,"key":1201,"Fun":1202,"John":1203,"Any":1204,"be":1205,"orth":1206,"Were":1207,"Gro":1208,"avy":1209,"Midnight":1210,"Sen":1211,"ames":1212,"Break":1213,"Far":1214,"Angeles":1215,"Mys":1216,"Leth":1217,"Lethal":1218,"az":1219,"inger":1220,"Mind":1221,"Tor":1222,"Fren":1223,"Mystery":1224,"na":1225,"zy":1226,"Will":1227,"Walk":1228,"Per":1229,"wh":1230,"fess":1231,"gy":1232,"Elm":1233,"Wolf":1234,"Away":1235,"Can":1236,"Angels":1237,"cess":1238,"tt":1239,"Mary":1240,"ction":1241,"Touch":1242,"Long":1243,"Gra":1244,"Light":1245,"Cry":1246,"Som":1247,"black":1248,"ink":1249,"Picture":1250,"ound":1251,"Ris":1252,"yage":1253,"Dem":1254,"Voyage":1255,"Sle":1256,"atur":1257,"Sleep":1258,"Beauty":1259,"Mich":1260,"ington":1261,"ign":1262,"tain":1263,"Bever":1264,"Beverly":1265,"Country":1266,"rous":1267,"ans":1268,"gerous":1269,"Dangerous":1270,"ji":1271,"Ninja":1272,"ey":1273,"ible":1274,"ough":1275,"Tri":1276,"Rob":1277,"Quest":1278,"ething":1279,"Something":1280,"Burn":1281,"Lar":1282,"Over":1283,"With":1284,"Mother":1285,"hes":1286,"ngle":1287,"Jungle":1288,"Some":1289,"rest":1290,"head":1291,"Goes":1292,"Afr":1293,"uble":1294,"Trouble":1295,"Hur":1296,"Sky":1297,"Music":1298,"Wes":1299,"Di":1300,"Jud":1301,"Val":1302,"Vir":1303,"Crow":1304,"1984":1305,"Muppet":1306,"iser":1307,"ason":1308,"1981":1309,"Drop":1310,"Let":1311,"Min":1312,"cl":1313,"olo":1314,"French":1315,"dge":1316,"fire":1317,"uman":1318,"Bridge":1319,"Crazy":1320,"Every":1321,"Not":1322,"me":1323,"rong":1324,"12":1325,"Ca":1326,"Bird":1327,"Te":1328,"10":1329,"Cowbo":1330,"Rush":1331,"Killer":1332,"Lies":1333,"Metro":1334,"Pr":1335,"Vamp":1336,"Vampire":1337,"Snow":1338,"vate":1339,"Private":1340,"1976":1341,"Force":1342,"Karate":1343,"Mummy":1344,"yond":1345,"Beyond":1346,"Carol":1347,"Years":1348,"uce":1349,"ale":1350,"Here":1351,"Kids":1352,"Batman":1353,"Hills":1354,"Om":1355,"Sti":1356,"Stand":1357,"cy":1358,"son":1359,"Shad":1360,"Sold":1361,"Hen":1362,"Wedd":1363,"horror":1364,"Din":1365,"Hand":1366,"lin":1367,"After":1368,"1962":1369,"orge":1370,"acle":1371,"Term":1372,"Duck":1373,"Fred":1374,"Wind":1375,"yn":1376,"Airport":1377,"teen":1378,"Simple":1379,"Nothing":1380,"Mask":1381,"1956":1382,"Lim":1383,"rina":1384,"Generation":1385,"Sense":1386,"sequel":1387,"Your":1388,"Double":1389,"Imp":1390,"Squ":1391,"1991":1392,"Six":1393,"Rep":1394,"Sister":1395,"ried":1396,"gers":1397,"Thin":1398,"1982":1399,"Warri":1400,"Tox":1401,"Del":1402,"white":1403,"ole":1404,"Chains":1405,"Dogs":1406,"Chainsaw":1407,"Evil":1408,"Hot":1409,"orm":1410,"ights":1411,"Vel":1412,"ael":1413,"Live":1414,"California":1415,"North":1416,"lace":1417,"Island":1418,"Michael":1419,"Prince":1420,"Bas":1421,"ha":1422,"Profess":1423,"Professor":1424,"Ge":1425,"Power":1426,"ler":1427,"Cab":1428,"amb":1429,"1958":1430,"Mer":1431,"ould":1432,"There":1433,"ague":1434,"League":1435,"This":1436,"Being":1437,"Cool":1438,"Titanic":1439,"Doll":1440,"umber":1441,"Second":1442,"low":1443,"Ham":1444,"uth":1445,"Dam":1446,"tiful":1447,"Color":1448,"Pl":1449,"other":1450,"urb":1451,"Another":1452,"Eag":1453,"Killing":1454,"Robin":1455,"Sal":1456,"raiser":1457,"Hellraiser":1458,"1980s":1459,"balls":1460,"iet":1461,"ker":1462,"America":1463,"Happen":1464,"nes":1465,"Aven":1466,"if":1467,"ank":1468,"bye":1469,"Comp":1470,"Goodbye":1471,"arch":1472,"Search":1473,"hool":1474,"Glory":1475,"Hamlet":1476,"acy":1477,"Anim":1478,"Che":1479,"IV":1480,"Id":1481,"Rose":1482,"Pork":1483,"1933":1484,"Enter":1485,"vs":1486,"emp":1487,"2009":1488,"Bed":1489,"Mor":1490,"aked":1491,"Kings":1492,"Nut":1493,"Spec":1494,"Mission":1495,"Da":1496,"Water":1497,"ena":1498,"uture":1499,"Dreams":1500,"Phantas":1501,"Phantasm":1502,"dd":1503,"Sha":1504,"Lives":1505,"Now":1506,"Sie":1507,"house":1508,"Bene":1509,"Siege":1510,"Hor":1511,"crim":1512,"Inn":1513,"School":1514,"Superman":1515,"Gang":1516,"Reg":1517,"Flying":1518,"Train":1519,"Call":1520,"Blade":1521,"Miracle":1522,"Civil":1523,"Shaft":1524,"Buff":1525,"Jaw":1526,"Pie":1527,"irty":1528,"Real":1529,"Funny":1530,"Scre":1531,"Princess":1532,"Band":1533,"fore":1534,"Gone":1535,"Henry":1536,"Top":1537,"aper":1538,"Again":1539,"Dirty":1540,"Pet":1541,"Ur":1542,"ban":1543,"lad":1544,"Living":1545,"1931":1546,"Urban":1547,"ats":1548,"As":1549,"Before":1550,"Howard":1551,"Heroes":1552,"den":1553,"eed":1554,"1961":1555,"1959":1556,"Talk":1557,"Sin":1558,"rer":1559,"ingle":1560,"fect":1561,"Perfect":1562,"enn":1563,"une":1564,"Brok":1565,"Soldier":1566,"Jer":1567,"Pre":1568,"lew":1569,"Cas":1570,"Doctor":1571,"1963":1572,"Science":1573,"Dance":1574,"Western":1575,"Honey":1576,"oog":1577,"Thund":1578,"Thunder":1579,"ules":1580,"Tora":1581,"Wedding":1582,"ling":1583,"ortal":1584,"fiction":1585,"sk":1586,"ved":1587,"Metal":1588,"1968":1589,"1974":1590,"Eve":1591,"Mut":1592,"Teen":1593,"Spy":1594,"Soc":1595,"Beneath":1596,"Mi":1597,"tles":1598,"Turtles":1599,"Mutant":1600,"Teenage":1601,"Lamp":1602,"Smo":1603,"rise":1604,"osaur":1605,"Lampoon":1606,"foot":1607,"Cut":1608,"Right":1609,"ket":1610,"ents":1611,"venge":1612,"istry":1613,"Registry":1614,"fast":1615,"maker":1616,"ado":1617,"Heavy":1618,"Breakfast":1619,"Gri":1620,"Sla":1621,"Desper":1622,"Africa":1623,"Alien":1624,"1950":1625,"cist":1626,"go":1627,"orcist":1628,"Exorcist":1629,"Cle":1630,"Wide":1631,"ala":1632,"Buddy":1633,"Serial":1634,"Everyone":1635,"Thie":1636,"wyn":1637,"Heat":1638,"George":1639,"Rang":1640,"Strip":1641,"union":1642,"lander":1643,"Goldwyn":1644,"Hearts":1645,"Highlander":1646,"Jones":1647,"led":1648,"Cowboy":1649,"Fac":1650,"ta":1651,"Steal":1652,"Eagle":1653,"thers":1654,"Robo":1655,"RoboCop":1656,"Billy":1657,"Tig":1658,"get":1659,"Danc":1660,"Wonderland":1661,"Brothers":1662,"Remem":1663,"Sur":1664,"Sund":1665,"tiz":1666,"Married":1667,"Citiz":1668,"Mc":1669,"ual":1670,"aser":1671,"str":1672,"alc":1673,"Bring":1674,"Indian":1675,"Witch":1676,"mat":1677,"que":1678,"Presid":1679,"Kn":1680,"Lord":1681,"ject":1682,"ara":1683,"Arti":1684,"Cross":1685,"Att":1686,"Wings":1687,"lins":1688,"ove":1689,"1972":1690,"Strange":1691,"Mayer":1692,"Know":1693,"Bir":1694,"Port":1695,"Town":1696,"li":1697,"Ext":1698,"Nutty":1699,"Work":1700,"crime":1701,"Zone":1702,"sts":1703,"Bob":1704,"cinematographer":1705,"Shadow":1706,"Mount":1707,"River":1708,"rait":1709,"Portrait":1710,"Mountain":1711,"cal":1712,"Book":1713,"Sam":1714,"Rober":1715,"Fore":1716,"Prop":1717,"Beautiful":1718,"Artists":1719,"Games":1720,"Much":1721,"Nine":1722,"Sab":1723,"1953":1724,"Pat":1725,"Pass":1726,"Vac":1727,"Only":1728,"Poison":1729,"Own":1730,"ls":1731,"int":1732,"1975":1733,"Vacation":1734,"Cir":1735,"ote":1736,"Maj":1737,"Toxic":1738,"Avenger":1739,"Circ":1740,"Er":1741,"Lou":1742,"Pal":1743,"ged":1744,"atballs":1745,"Meatballs":1746,"1983":1747,"atchers":1748,"Curse":1749,"Without":1750,"Eff":1751,"kin":1752,"ute":1753,"ical":1754,"Carn":1755,"tinct":1756,"Instinct":1757,"Jaws":1758,"Effect":1759,"Cho":1760,"Side":1761,"oved":1762,"aster":1763,"Falling":1764,"Beloved":1765,"Very":1766,"Four":1767,"Full":1768,"oms":1769,"Deep":1770,"Revenge":1771,"Benji":1772,"Emp":1773,"Gig":1774,"1946":1775,"Safe":1776,"Empire":1777,"Em":1778,"Law":1779,"Pun":1780,"Pink":1781,"Sant":1782,"Tin":1783,"1949":1784,"Santa":1785,"Vol":1786,"oli":1787,"iti":1788,"aking":1789,"Bamb":1790,"Jour":1791,"Jason":1792,"Award":1793,"Magic":1794,"Other":1795,"vel":1796,"qui":1797,"Corn":1798,"1957":1799,"Hide":1800,"1955":1801,"Peak":1802,"Falls":1803,"Crime":1804,"Porky":1805,"ustin":1806,"Rising":1807,"Oper":1808,"Ber":1809,"Kind":1810,"bird":1811,"vin":1812,"its":1813,"Villa":1814,"ino":1815,"Hon":1816,"Kong":1817,"omen":1818,"atal":1819,"rity":1820,"Barb":1821,"Village":1822,"Even":1823,"San":1824,"antasy":1825,"hington":1826,"ned":1827,"Washington":1828,"Damned":1829,"Journey":1830,"Freak":1831,"Fatal":1832,"Trip":1833,"Dol":1834,"Op":1835,"Arm":1836,"Candy":1837,"Dolittle":1838,"Dick":1839,"Eas":1840,"eet":1841,"Mars":1842,"Walking":1843,"Sweet":1844,"Easy":1845,"Fair":1846,"ketball":1847,"Are":1848,"Abo":1849,"uel":1850,"ature":1851,"Broad":1852,"1966":1853,"aret":1854,"Innoc":1855,"Above":1856,"ming":1857,"rol":1858,"owers":1859,"Cont":1860,"science":1861,"Wrong":1862,"Fav":1863,"Sil":1864,"Sav":1865,"Yell":1866,"ars":1867,"Warriors":1868,"Cond":1869,"Fi":1870,"Mortal":1871,"ris":1872,"ated":1873,"Slumber":1874,"Small":1875,"Favor":1876,"Fil":1877,"Less":1878,"add":1879,"Myers":1880,"tical":1881,"break":1882,"amax":1883,"Killers":1884,"Miramax":1885,"Cast":1886,"ttle":1887,"uri":1888,"Bottle":1889,"Major":1890,"Takes":1891,"fantasy":1892,"cis":1893,"field":1894,"lla":1895,"ovi":1896,"They":1897,"Shag":1898,"1970":1899,"1937":1900,"Wayne":1901,"Bullets":1902,"ovich":1903,"Begin":1904,"ita":1905,"1944":1906,"Once":1907,"Code":1908,"inema":1909,"Romance":1910,"Beginning":1911,"Came":1912,"Lol":1913,"Their":1914,"Chase":1915,"Inter":1916,"Hollow":1917,"Edge":1918,"cinematography":1919,"Stop":1920,"Lolita":1921,"Cold":1922,"ob":1923,"rup":1924,"xy":1925,"Stone":1926,"Rec":1927,"Enc":1928,"atural":1929,"Ace":1930,"Cinema":1931,"Ice":1932,"Vent":1933,"ail":1934,"ura":1935,"Phant":1936,"Roberts":1937,"Ventura":1938,"Bab":1939,"lock":1940,"alo":1941,"Proble":1942,"South":1943,"Problem":1944,"bie":1945,"uic":1946,"uke":1947,"Doors":1948,"Glen":1949,"Happened":1950,"34":1951,"Jul":1952,"inator":1953,"Herbie":1954,"Terminator":1955,"34th":1956,"AS":1957,"By":1958,"ons":1959,"iness":1960,"addy":1961,"Bye":1962,"Art":1963,"Naked":1964,"1940":1965,"Crimes":1966,"bow":1967,"ert":1968,"Tot":1969,"Thom":1970,"Desert":1971,"Creep":1972,"Commit":1973,"Buffalo":1974,"Total":1975,"Van":1976,"Peter":1977,"Flat":1978,"Smoke":1979,"Fron":1980,"Sens":1981,"Wis":1982,"hol":1983,"sco":1984,"mers":1985,"Noon":1986,"Attack":1987,"scores":1988,"Pose":1989,"Suic":1990,"bot":1991,"bound":1992,"artment":1993,"cks":1994,"Grease":1995,"Father":1996,"ams":1997,"idon":1998,"Champ":1999,"Abbot":2000,"Better":2001,"Poseidon":2002,"Where":2003,"ze":2004,"iety":2005,"Quiet":2006,"Virgin":2007,"Society":2008,"Thomas":2009,"Dig":2010,"Fan":2011,"Paper":2012,"Say":2013,"Shot":2014,"aly":2015,"Storm":2016,"Dear":2017,"Boil":2018,"ango":2019,"tainment":2020,"Entertainment":2021,"Hour":2022,"Wiv":2023,"rican":2024,"idden":2025,"Box":2026,"Like":2027,"ards":2028,"Almo":2029,"Times":2030,"Apartment":2031,"Muppets":2032,"Hurrican":2033,"Company":2034,"Wives":2035,"Almost":2036,"Hurricane":2037,"Ele":2038,"Future":2039,"Raven":2040,"Speed":2041,"Fort":2042,"pect":2043,"Bon":2044,"ingers":2045,"Than":2046,"Shoot":2047,"ello":2048,"Grump":2049,"Class":2050,"Kra":2051,"Laur":2052,"Ob":2053,"VI":2054,"Yards":2055,"ek":2056,"Week":2057,"Legends":2058,"Remember":2059,"Eraser":2060,"Kramer":2061,"ait":2062,"back":2063,"cat":2064,"wolf":2065,"Outs":2066,"Agnes":2067,"Werewolf":2068,"Bringing":2069,"producer":2070,"asure":2071,"itter":2072,"Treasure":2073,"lend":2074,"Splend":2075,"Menace":2076,"22":2077,"Act":2078,"Low":2079,"Na":2080,"Pan":2081,"Sus":2082,"Tran":2083,"Chap":2084,"Tale":2085,"Daugh":2086,"tian":2087,"lane":2088,"edit":2089,"elena":2090,"ilk":2091,"iders":2092,"Grand":2093,"Airplane":2094,"editor":2095,"Gard":2096,"Pur":2097,"1979":2098,"Step":2099,"Fools":2100,"Sabrina":2101,"Chapter":2102,"Purple":2103,"Odd":2104,"vy":2105,"Parent":2106,"Parts":2107,"Trap":2108,"Trans":2109,"Bound":2110,"Gent":2111,"lar":2112,"leman":2113,"1925":2114,"Hunt":2115,"Laura":2116,"Gentleman":2117,"Bul":2118,"Bare":2119,"Willy":2120,"Ze":2121,"rence":2122,"rees":2123,"asures":2124,"aded":2125,"Loaded":2126,"China":2127,"Measures":2128,"ipp":2129,"Darn":2130,"Magn":2131,"Prophe":2132,"Barefoot":2133,"Could":2134,"Kl":2135,"Viv":2136,"Wai":2137,"ucers":2138,"Stri":2139,"imum":2140,"ford":2141,"Maximum":2142,"Waiting":2143,"Cup":2144,"Det":2145,"Pred":2146,"Prim":2147,"mlins":2148,"etch":2149,"Gremlins":2150,"Fletch":2151,"anger":2152,"Ending":2153,"NeverEnding":2154,"Demon":2155,"Predator":2156,"af":2157,"ilad":2158,"nc":2159,"tation":2160,"vation":2161,"las":2162,"elph":2163,"ides":2164,"Bear":2165,"Doom":2166,"1941":2167,"Philad":2168,"Rides":2169,"Salvation":2170,"elphia":2171,"Philadelphia":2172,"Boog":2173,"Ear":2174,"Wood":2175,"uter":2176,"vet":2177,"Coming":2178,"Mons":2179,"Resc":2180,"Valley":2181,"Velvet":2182,"Boogie":2183,"Ha":2184,"ious":2185,"Broken":2186,"Oc":2187,"Rad":2188,"bus":2189,"tober":2190,"oop":2191,"Minds":2192,"Seconds":2193,"Clear":2194,"Rangers":2195,"Innocence":2196,"Fortune":2197,"Haun":2198,"October":2199,"Radio":2200,"Care":2201,"Kne":2202,"Too":2203,"ggy":2204,"ray":2205,"Though":2206,"istory":2207,"Peggy":2208,"Trick":2209,"Friend":2210,"Elmo":2211,"Wonderful":2212,"Faces":2213,"Knew":2214,"Ban":2215,"Come":2216,"History":2217,"Pay":2218,"Temp":2219,"rats":2220,"ung":2221,"enty":2222,"Assign":2223,"Temptation":2224,"Assignment":2225,"Pump":2226,"Take":2227,"ude":2228,"Battle":2229,"Missing":2230,"ossible":2231,"Freddy":2232,"Impossible":2233,"Files":2234,"Mel":2235,"Rent":2236,"Sub":2237,"bad":2238,"ior":2239,"ont":2240,"Whole":2241,"Monkey":2242,"Sinbad":2243,"Bone":2244,"Rand":2245,"Gate":2246,"Ven":2247,"anas":2248,"rie":2249,"Ghostbus":2250,"Office":2251,"Strangers":2252,"Bananas":2253,"Ghostbusters":2254,"win":2255,"work":2256,"Char":2257,"Add":2258,"Candles":2259,"ega":2260,"Omega":2261,"down":2262,"girl":2263,"orn":2264,"ict":2265,"Carrie":2266,"Month":2267,"Snatchers":2268,"ization":2269,"Morning":2270,"Gigolo":2271,"Bu":2272,"James":2273,"Sand":2274,"Turn":2275,"light":2276,"viving":2277,"Decl":2278,"Rox":2279,"Semat":2280,"Madison":2281,"Omen":2282,"Deliver":2283,"Animator":2284,"Civilization":2285,"Surviving":2286,"Decline":2287,"Sematary":2288,"Mul":2289,"world":2290,"Alone":2291,"Ridge":2292,"Window":2293,"Rules":2294,"zan":2295,"press":2296,"Tarzan":2297,"Austin":2298,"Lawn":2299,"Natural":2300,"Pi":2301,"Powers":2302,"Sing":2303,"tians":2304,"Third":2305,"2003":2306,"Place":2307,"Post":2308,"Playing":2309,"Five":2310,"Cel":2311,"sse":2312,"Claus":2313,"Citizen":2314,"Coc":2315,"Dal":2316,"La":2317,"Wag":2318,"Stuff":2319,"See":2320,"Comedy":2321,"Express":2322,"Cocoon":2323,"Dawn":2324,"Women":2325,"ctive":2326,"gment":2327,"where":2328,"tective":2329,"idate":2330,"ubber":2331,"Flubber":2332,"2012":2333,"Candidate":2334,"Judgment":2335,"Born":2336,"Hal":2337,"Must":2338,"Sour":2339,"Wel":2340,"utive":2341,"ward":2342,"come":2343,"anda":2344,"Exec":2345,"izon":2346,"Horizon":2347,"Welcome":2348,"Executive":2349,"Mat":2350,"iracy":2351,"Chill":2352,"Mod":2353,"2008":2354,"Clock":2355,"Consp":2356,"Guns":2357,"Sunday":2358,"Half":2359,"Conspiracy":2360,"Did":2361,"Our":2362,"related":2363,"Sequel":2364,"2010":2365,"resp":2366,"girls":2367,"Lond":2368,"Pit":2369,"Past":2370,"Ram":2371,"father":2372,"Godfather":2373,"Indiana":2374,"London":2375,"Pac":2376,"Rel":2377,"Sch":2378,"bia":2379,"jama":2380,"Reunion":2381,"Pajama":2382,"Anything":2383,"Squad":2384,"Postman":2385,"Ruth":2386,"ific":2387,"Special":2388,"Rambo":2389,"Pacific":2390,"Horror":2391,"Las":2392,"Tam":2393,"ius":2394,"ona":2395,"tice":2396,"terge":2397,"ustice":2398,"Inv":2399,"Anna":2400,"Polterge":2401,"Palace":2402,"Candyman":2403,"Poltergeist":2404,"Date":2405,"Lake":2406,"Mess":2407,"Sug":2408,"iff":2409,"News":2410,"Leave":2411,"master":2412,"Rais":2413,"Desperate":2414,"Sugar":2415,"bt":2416,"rough":2417,"amed":2418,"Through":2419,"Twin":2420,"Cob":2421,"Flaming":2422,"Andre":2423,"Doubt":2424,"Dump":2425,"zil":2426,"eling":2427,"Apple":2428,"Fried":2429,"Genius":2430,"Feeling":2431,"Brazil":2432,"Dumpling":2433,"Justice":2434,"Miller":2435,"ounty":2436,"Project":2437,"Running":2438,"Darkness":2439,"Command":2440,"Condor":2441,"Cape":2442,"Pir":2443,"Rip":2444,"iers":2445,"ented":2446,"Abs":2447,"Richard":2448,"sport":2449,"Dor":2450,"Dist":2451,"Falc":2452,"Human":2453,"rem":2454,"1967":2455,"Alask":2456,"Falcon":2457,"Alaska":2458,"Bal":2459,"Sain":2460,"row":2461,"edited":2462,"Saving":2463,"Dorado":2464,"Jam":2465,"ee":2466,"advent":2467,"Shin":2468,"1943":2469,"Still":2470,"Forever":2471,"Babe":2472,"adventure":2473,"Dust":2474,"lic":2475,"ash":2476,"Heights":2477,"Army":2478,"Conque":2479,"Flir":2480,"Replace":2481,"Committed":2482,"Replacement":2483,"Bow":2484,"Hate":2485,"finger":2486,"iah":2487,"Butch":2488,"Pret":2489,"1926":2490,"Queen":2491,"Letter":2492,"Calls":2493,"ities":2494,"Pretty":2495,"kly":2496,"mm":2497,"okly":2498,"won":2499,"wal":2500,"ternoon":2501,"featur":2502,"Afternoon":2503,"Tales":2504,"Guard":2505,"General":2506,"heads":2507,"Dinosaur":2508,"oklyn":2509,"featuring":2510,"BT":2511,"Fre":2512,"GBT":2513,"Jur":2514,"LGBT":2515,"Ros":2516,"arks":2517,"assic":2518,"Flash":2519,"Jurassic":2520,"lass":2521,"Runaway":2522,"Remains":2523,"Passion":2524,"Bell":2525,"Ger":2526,"Net":2527,"Head":2528,"Bott":2529,"Upon":2530,"Sunrise":2531,"Rider":2532,"Virt":2533,"Carolina":2534,"Bottom":2535,"Foll":2536,"Glass":2537,"ress":2538,"ider":2539,"Follow":2540,"Ir":2541,"arlet":2542,"ago":2543,"Scream":2544,"Scarlet":2545,"Jump":2546,"1932":2547,"Thieves":2548,"Cour":2549,"Jane":2550,"cred":2551,"Shall":2552,"Incred":2553,"Truth":2554,"Corrina":2555,"Mos":2556,"Py":2557,"rection":2558,"rif":2559,"urrection":2560,"Inf":2561,"quen":2562,"Rocket":2563,"Eden":2564,"Berlin":2565,"At":2566,"rit":2567,"Bedro":2568,"Fland":2569,"Babys":2570,"Flanders":2571,"Fast":2572,"Wire":2573,"nk":2574,"ship":2575,"Blank":2576,"eping":2577,"Saints":2578,"Pel":2579,"rive":2580,"riot":2581,"Detective":2582,"ierce":2583,"Patriot":2584,"16":2585,"Fis":2586,"Assass":2587,"Weekend":2588,"Garden":2589,"Bag":2590,"Mur":2591,"enda":2592,"Def":2593,"Lover":2594,"Stars":2595,"Carter":2596,"Farm":2597,"Dollhouse":2598,"ah":2599,"ral":2600,"rority":2601,"Strong":2602,"Chan":2603,"ocity":2604,"Monty":2605,"Sorority":2606,"ways":2607,"Groove":2608,"Velocity":2609,"Screen":2610,"Dancer":2611,"Favorite":2612,"Field":2613,"orce":2614,"Stu":2615,"Chin":2616,"Crumb":2617,"Happy":2618,"Larry":2619,"Hideous":2620,"Make":2621,"est":2622,"urai":2623,"iday":2624,"Holiday":2625,"Samurai":2626,"Stuart":2627,"Fro":2628,"Waking":2629,"esh":2630,"Bean":2631,"Places":2632,"fully":2633,"atoes":2634,"Hunted":2635,"Tomatoes":2636,"ement":2637,"ucky":2638,"Returns":2639,"TriStar":2640,"Crossing":2641,"stones":2642,"Brow":2643,"1951":2644,"Flint":2645,"Guys":2646,"Plenty":2647,"Broadway":2648,"Splendor":2649,"Suburb":2650,"Flintstones":2651,"Bi":2652,"Nature":2653,"hai":2654,"iac":2655,"round":2656,"ilt":2657,"iginal":2658,"Shel":2659,"Shang":2660,"1969":2661,"Flesh":2662,"pector":2663,"Happiness":2664,"Inspector":2665,"Alan":2666,"Original":2667,"Hands":2668,"Jerry":2669,"kini":2670,"Bikini":2671,"Shanghai":2672,"Mont":2673,"Fever":2674,"Honor":2675,"mar":2676,"ighter":2677,"Bloodsport":2678,"Bron":2679,"Ke":2680,"Theory":2681,"aken":2682,"Liar":2683,"iving":2684,"Awaken":2685,"Age":2686,"Eight":2687,"Lag":2688,"Wait":2689,"cop":2690,"law":2691,"Outlaw":2692,"moon":2693,"Murders":2694,"Honeymoon":2695,"Stealing":2696,"Lagoon":2697,"heart":2698,"adle":2699,"Brady":2700,"Cradle":2701,"Species":2702,"Tiger":2703,"Circle":2704,"7th":2705,"Hat":2706,"Ly":2707,"Poo":2708,"Breaking":2709,"Div":2710,"Loo":2711,"Rings":2712,"oria":2713,"ami":2714,"Beast":2715,"Season":2716,"ions":2717,"Flight":2718,"Miami":2719,"Control":2720,"Camp":2721,"teers":2722,"als":2723,"Log":2724,"Delta":2725,"Cook":2726,"Have":2727,"aho":2728,"ody":2729,"Manch":2730,"Ghosts":2731,"Idaho":2732,"Bun":2733,"aps":2734,"Opera":2735,"Phantom":2736,"Bunch":2737,"Move":2738,"clip":2739,"17":2740,"Around":2741,"Jers":2742,"ords":2743,"Snowman":2744,"Records":2745,"Jersey":2746,"Winter":2747,"fly":2748,"terfly":2749,"Francis":2750,"Supper":2751,"Butterfly":2752,"Outer":2753,"Tough":2754,"ost":2755,"voc":2756,"Advoc":2757,"Fright":2758,"Advocate":2759,"Bre":2760,"Rome":2761,"mower":2762,"Crown":2763,"Lawnmower":2764,"Francisco":2765,"Ball":2766,"Ivy":2767,"Luc":2768,"Sara":2769,"Rela":2770,"Holy":2771,"Eng":2772,"Fell":2773,"Hud":2774,"Alb":2775,"Arth":2776,"Flo":2777,"Yellow":2778,"Haunting":2779,"Bug":2780,"gator":2781,"vigator":2782,"Chair":2783,"Marvin":2784,"Navigator":2785,"Romeo":2786,"Den":2787,"Ug":2788,"zilla":2789,"vis":2790,"Toy":2791,"Godzilla":2792,"Crimson":2793,"Shaggy":2794,"Arthur":2795,"Ugly":2796,"aire":2797,"ef":2798,"prise":2799,"vo":2800,"vid":2801,"Brief":2802,"show":2803,"ucker":2804,"Destin":2805,"Master":2806,"Plot":2807,"sucker":2808,"tra":2809,"lation":2810,"lash":2811,"igator":2812,"Shakes":2813,"able":2814,"Alligator":2815,"Proxy":2816,"Hudsucker":2817,"Prod":2818,"Prom":2819,"stone":2820,"use":2821,"athing":2822,"Ladybird":2823,"Touchstone":2824,"Cause":2825,"Opp":2826,"Encoun":2827,"Bic":2828,"Eclip":2829,"Ry":2830,"tier":2831,"entenn":2832,"Shaw":2833,"Newton":2834,"shank":2835,"ronos":2836,"Redemp":2837,"ossess":2838,"ski":2839,"Carnosaur":2840,"Frontier":2841,"Bicentenn":2842,"Eclipse":2843,"Shawshank":2844,"Redemption":2845,"Bicentennial":2846,"Ill":2847,"Wol":2848,"Nights":2849,"Marsh":2850,"ledge":2851,"Knowledge":2852,"Carnal":2853,"Creepshow":2854,"Message":2855,"Wolves":2856,"Mill":2857,"tell":2858,"Lebow":2859,"Harve":2860,"Grace":2861,"Central":2862,"Present":2863,"Brave":2864,"Million":2865,"tello":2866,"Lebowski":2867,"Mis":2868,"anors":2869,"deme":2870,"Canad":2871,"Thief":2872,"Dancing":2873,"Suicide":2874,"Misdeme":2875,"Misdemeanors":2876,"Mouse":2877,"tient":2878,"omb":2879,"omy":2880,"iding":2881,"Sliding":2882,"Patient":2883,"Primal":2884,"Fantas":2885,"Komb":2886,"dlock":2887,"actical":2888,"Sling":2889,"Muse":2890,"Practical":2891,"Gridlock":2892,"Castle":2893,"Virginia":2894,"Destination":2895,"Ryan":2896,"Canadian":2897,"Kombat":2898,"din":2899,"eral":2900,"riet":2901,"Homeward":2902,"Ordin":2903,"Funeral":2904,"Ashes":2905,"Prophecy":2906,"Ordinary":2907,"Dud":2908,"Danger":2909,"Finger":2910,"Sho":2911,"ela":2912,"prin":2913,"aries":2914,"Myth":2915,"Angela":2916,"Simp":2917,"Grave":2918,"Diaries":2919,"Basketball":2920,"Addams":2921,"Dudley":2922,"Fingerprin":2923,"Fingerprints":2924,"Bus":2925,"Dy":2926,"Fine":2927,"Foot":2928,"Us":2929,"pla":2930,"psy":2931,"Daughters":2932,"Cos":2933,"Du":2934,"Poc":2935,"umbo":2936,"2006":2937,"Merc":2938,"Interrup":2939,"Abbott":2940,"Costello":2941,"Interrupted":2942,"Dave":2943,"Dumbo":2944,"Fight":2945,"Pitch":2946,"Tail":2947,"elly":2948,"Twister":2949,"1948":2950,"Cats":2951,"Dra":2952,"Mic":2953,"dom":2954,"ham":2955,"arian":2956,"coming":2957,"ota":2958,"Conan":2959,"Endless":2960,"Raise":2961,"Warrior":2962,"Barbarian":2963,"Marshals":2964,"300":2965,"Oth":2966,"gel":2967,"arty":2968,"Theater":2969,"More":2970,"istad":2971,"Amistad":2972,"Sliver":2973,"Strangel":2974,"Jacket":2975,"Minnes":2976,"Lawrence":2977,"3000":2978,"Othello":2979,"Strangelove":2980,"Minnesota":2981,"Ara":2982,"Kw":2983,"Ses":2984,"Yes":2985,"atures":2986,"List":2987,"indler":2988,"Paul":2989,"Aladd":2990,"Presents":2991,"Demoli":2992,"Crowd":2993,"Casper":2994,"Wisdom":2995,"Schindler":2996,"Arabia":2997,"Kwai":2998,"Sesame":2999,"Aladdin":3000,"Demolition":3001,"Daddy":3002,"If":3003,"Mile":3004,"Marty":3005,"Ule":3006,"bama":3007,"yote":3008,"uts":3009,"ckless":3010,"osite":3011,"Reckless":3012,"Sep":3013,"Madness":3014,"Coyote":3015,"Alabama":3016,"Palm":3017,"Opposite":3018,"Ulee":3019,"66":3020,"Bast":3021,"Song":3022,"Tun":3023,"mine":3024,"Stay":3025,"Mock":3026,"Goldmine":3027,"liners":3028,"Basqui":3029,"Sally":3030,"Flatliners":3031,"Bastard":3032,"Tuned":3033,"Basquiat":3034,"54":3035,"81":3036,"Ari":3037,"Erin":3038,"Fem":3039,"Guts":3040,"Mou":3041,"Oct":3042,"ds":3043,"kes":3044,"mist":3045,"pment":3046,"ycat":3047,"zona":3048,"ateur":3049,"ouds":3050,"ingbird":3051,"Stra":3052,"ceiver":3053,"ckovich":3054,"raft":3055,"Span":3056,"Spock":3057,"Brockovich":3058,"Clouds":3059,"Amateur":3060,"Copycat":3061,"Entra":3062,"Desperado":3063,"Strikes":3064,"Mockingbird":3065,"Arizona":3066,"Mouth":3067,"Octane":3068,"Straight":3069,"Entrapment":3070,"Cam":3071,"Fug":3072,"Hidden":3073,"Ron":3074,"Woop":3075,"itive":3076,"nt":3077,"over":3078,"ervo":3079,"Loathing":3080,"acher":3081,"Switch":3082,"Terror":3083,"Reservo":3084,"Jew":3085,"African":3086,"Waterworld":3087,"Boxing":3088,"Fugitive":3089,"Reservoir":3090,"Cri":3091,"Duff":3092,"Fand":3093,"Gary":3094,"Land":3095,"Wit":3096,"col":3097,"gon":3098,"kovich":3099,"nity":3100,"ston":3101,"Chas":3102,"emnity":3103,"1930":3104,"more":3105,"Flynt":3106,"Simon":3107,"Hunting":3108,"Indemnity":3109,"Malkovich":3110,"Fandango":3111,"Witness":3112,"BAS":3113,"Dun":3114,"Egy":3115,"Eketball":3116,"Glad":3117,"Mister":3118,"Rans":3119,"Tib":3120,"Wo":3121,"draft":3122,"iator":3123,"pt":3124,"elot":3125,"ility":3126,"ico":3127,"than":3128,"itz":3129,"Chip":3130,"raid":3131,"Reinde":3132,"Splash":3133,"Close":3134,"Truman":3135,"Afraid":3136,"Backdraft":3137,"Poets":3138,"Swingers":3139,"ibility":3140,"Guy":3141,"Sensibility":3142,"Payback":3143,"Specialist":3144,"Heads":3145,"Camelot":3146,"Duffel":3147,"BASEketball":3148,"Egypt":3149,"Gladiator":3150,"Ransom":3151,"Tibet":3152,"Woolf":3153,"Chips":3154,"Reindeer":3155,"Dolo":3156,"Hab":3157,"Hook":3158,"Jury":3159,"Jade":3160,"Kal":3161,"Tank":3162,"Vi":3163,"bour":3164,"car":3165,"jack":3166,"mont":3167,"reme":3168,"orne":3169,"Shut":3170,"Amy":3171,"uchland":3172,"Stella":3173,"Claib":3174,"Magoo":3175,"Boyz":3176,"Grouchland":3177,"Larger":3178,"Diner":3179,"Birch":3180,"Extreme":3181,"Battlefield":3182,"Ridgemont":3183,"Dolores":3184,"Kalifornia":3185,"Viol":3186,"Claiborne":3187,"Dune":3188,"Ene":3189,"FK":3190,"Gad":3191,"Hend":3192,"Helena":3193,"Jakes":3194,"JFK":3195,"Nile":3196,"Well":3197,"atic":3198,"bs":3199,"iate":3200,"mys":3201,"wall":3202,"wless":3203,"erno":3204,"Str":3205,"State":3206,"ersons":3207,"Reilly":3208,"Unstr":3209,"Acres":3210,"ociate":3211,"Juan":3212,"Moonstr":3213,"Flawless":3214,"Associate":3215,"Malcol":3216,"Parker":3217,"Freejack":3218,"Risk":3219,"Stonewall":3220,"Ravenous":3221,"Bowfinger":3222,"Inferno":3223,"Jewel":3224,"Chasing":3225,"Enemy":3226,"Gadget":3227,"Hendersons":3228,"mystery":3229,"Unstrung":3230,"Moonstruck":3231,"Malcolm":3232,"Baker":3233,"Dare":3234,"Gets":3235,"Mu":3236,"Tap":3237,"Tides":3238,"yGr":3239,"omer":3240,"edown":3241,"ousand":3242,"DeMar":3243,"Filmed":3244,"Thousand":3245,"Manny":3246,"immer":3247,"Boomer":3248,"Spinal":3249,"Analy":3250,"athon":3251,"Marathon":3252,"Going":3253,"orses":3254,"PolyGr":3255,"Sound":3256,"Ducks":3257,"Brokedown":3258,"Mickey":3259,"Wellville":3260,"DeMarco":3261,"Boomerang":3262,"Analyze":3263,"PolyGram":3264,"77":3265,"Gill":3266,"Horses":3267,"Tingle":3268,"game":3269,"ithe":3270,"zi":3271,"zzi":3272,"Heath":3273,"Sebas":3274,"Cole":3275,"Collar":3276,"aching":3277,"Endgame":3278,"Superstar":3279,"Prizzi":3280,"Few":3281,"Smithe":3282,"Teaching":3283,"Preacher":3284,"Thoughts":3285,"Ronin":3286,"Heathers":3287,"Sebastian":3288,"Smithee":3289,"Bur":3290,"Cim":3291,"Cuck":3292,"Flew":3293,"Gatt":3294,"MAS":3295,"Raw":3296,"Sk":3297,"Vic":3298,"VIII":3299,"Vars":3300,"fid":3301,"mus":3302,"ten":3303,"who":3304,"well":3305,"reement":3306,"arron":3307,"aca":3308,"ential":3309,"Nest":3310,"ations":3311,"Peace":3312,"Confid":3313,"keys":3314,"Dances":3315,"Monkeys":3316,"Agreement":3317,"Andy":3318,"Created":3319,"Fishin":3320,"pects":3321,"Grumpier":3322,"Suspects":3323,"Network":3324,"Usual":3325,"Cimarron":3326,"Cuckoo":3327,"Gattaca":3328,"MASH":3329,"Vicious":3330,"Varsity":3331,"whose":3332,"Confidential":3333,"Bio":3334,"Dumb":3335,"Dumber":3336,"Fab":3337,"Milk":3338,"Ride":3339,"gus":3340,"kow":3341,"kno":3342,"ticks":3343,"vies":3344,"erks":3345,"Moh":3346,"ulous":3347,"Bogus":3348,"Brooms":3349,"Warhol":3350,"Clerks":3351,"Rocks":3352,"Dreamed":3353,"Famous":3354,"Communion":3355,"Burnt":3356,"Bedkno":3357,"Fabulous":3358,"Broomsticks":3359,"Bedknobs":3360,"Cou":3361,"Patt":3362,"sen":3363,"lanc":3364,"icans":3365,"geance":3366,"Ref":3367,"ablanc":3368,"Ado":3369,"body":3370,"movies":3371,"Nobody":3372,"Gloria":3373,"Jackson":3374,"Hunter":3375,"Torn":3376,"Judy":3377,"Rushmore":3378,"Casablanc":3379,"Working":3380,"Vanities":3381,"Bonfire":3382,"Zero":3383,"Vengeance":3384,"Mohicans":3385,"Couple":3386,"Patton":3387,"Casablanca":3388,"Bitter":3389,"Coog":3390,"Dia":3391,"Drin":3392,"Fa":3393,"Hair":3394,"Juman":3395,"Wy":3396,"grees":3397,"lington":3398,"rach":3399,"tz":3400,"tor":3401,"aration":3402,"edi":3403,"Degrees":3404,"erson":3405,"Shamp":3406,"Bluff":3407,"While":3408,"Arlington":3409,"Juice":3410,"Jackal":3411,"Saucers":3412,"aways":3413,"spray":3414,"Shadrach":3415,"Checks":3416,"Operation":3417,"Castaways":3418,"Says":3419,"Earp":3420,"Keeping":3421,"Separation":3422,"Dunston":3423,"Coogan":3424,"Drinking":3425,"Faith":3426,"Hairspray":3427,"Jumanji":3428,"Wyatt":3429,"Shampoo":3430,"Bones":3431,"Dred":3432,"Has":3433,"Kh":3434,"Kelly":3435,"Lace":3436,"Pom":3437,"Pale":3438,"Wr":3439,"boli":3440,"cules":3441,"pes":3442,"pat":3443,"tie":3444,"ader":3445,"thon":3446,"Mob":3447,"Mark":3448,"Acc":3449,"Arsen":3450,"Eyre":3451,"Streets":3452,"Grass":3453,"Juror":3454,"Corner":3455,"Corrup":3456,"Hercules":3457,"Curtain":3458,"Judge":3459,"Minnie":3460,"Repo":3461,"Cabe":3462,"McCabe":3463,"Peaks":3464,"Outsiders":3465,"Detail":3466,"MouseHunt":3467,"Diaboli":3468,"Dredd":3469,"Pompat":3470,"Arsenic":3471,"Corruptor":3472,"Diabolique":3473,"Pompatus":3474,"60":3475,"Baked":3476,"Cav":3477,"Caddy":3478,"Hoo":3479,"Push":3480,"dha":3481,"ging":3482,"pro":3483,"siers":3484,"ux":3485,"worth":3486,"vion":3487,"rial":3488,"Deer":3489,"Deux":3490,"ume":3491,"Rope":3492,"Rebel":3493,"Sparks":3494,"shack":3495,"Score":3496,"tician":3497,"Clue":3498,"Wally":3499,"Isn":3500,"Point":3501,"ection":3502,"Beautician":3503,"Given":3504,"Buddha":3505,"Verd":3506,"restrial":3507,"Basic":3508,"alcade":3509,"Towners":3510,"livion":3511,"Julie":3512,"Digging":3513,"Shots":3514,"Boiling":3515,"Oblivion":3516,"Stepford":3517,"Melvin":3518,"Moskow":3519,"Change":3520,"Lucas":3521,"Female":3522,"Khan":3523,"Wrath":3524,"Cavalcade":3525,"Caddyshack":3526,"Hoosiers":3527,"Pushing":3528,"Moskowitz":3529,"Aun":3530,"Dome":3531,"Jun":3532,"Mame":3533,"Moll":3534,"Nigh":3535,"Nash":3536,"Rim":3537,"Sier":3538,"Single":3539,"Tower":3540,"cin":3541,"nam":3542,"uard":3543,"oration":3544,"comes":3545,"asco":3546,"thaw":3547,"ums":3548,"Becomes":3549,"Brooklyn":3550,"Antz":3551,"Fog":3552,"Mail":3553,"Dante":3554,"phy":3555,"Madre":3556,"Donnie":3557,"Brasco":3558,"Slums":3559,"Mirror":3560,"Pieces":3561,"Boiler":3562,"Panther":3563,"Bulworth":3564,"Murphy":3565,"Winterbour":3566,"Auntie":3567,"Junior":3568,"Nighthaw":3569,"Nashville":3570,"Sierra":3571,"Towering":3572,"Winterbourne":3573,"Nighthawks":3574,"Cider":3575,"Dund":3576,"Named":3577,"Rug":3578,"Vib":3579,"dile":3580,"guard":3581,"hale":3582,"iens":3583,"uos":3584,"ontain":3585,"storation":3586,"roat":3587,"alow":3588,"ern":3589,"asia":3590,"throat":3591,"Stup":3592,"ids":3593,"Deuce":3594,"Restoration":3595,"Nemo":3596,"astasia":3597,"ardy":3598,"Anastasia":3599,"Aliens":3600,"opers":3601,"opardy":3602,"1965":3603,"Starship":3604,"ube":3605,"Bigalow":3606,"Exhale":3607,"Provid":3608,"Croco":3609,"Streetcar":3610,"Desire":3611,"Creatures":3612,"Souls":3613,"Bodyguard":3614,"Showgirls":3615,"Male":3616,"Troopers":3617,"Jeopardy":3618,"Cutthroat":3619,"Punk":3620,"Slumberland":3621,"holland":3622,"Eraserhead":3623,"Outside":3624,"22Croco":3625,"Rescue":3626,"Random":3627,"winning":3628,"Mulholland":3629,"Flirt":3630,"Virtuos":3631,"Python":3632,"1600":3633,"Dying":3634,"Dundee":3635,"Rugrats":3636,"Vibes":3637,"Stupids":3638,"Providence":3639,"22Crocodile":3640,"Virtuosity":3641,"45":3642,"Cong":3643,"Cany":3644,"Cly":3645,"Foo":3646,"Hug":3647,"LC":3648,"Mole":3649,"Sadd":3650,"SLC":3651,"Viet":3652,"Wong":3653,"Zh":3654,"bre":3655,"fel":3656,"feld":3657,"hi":3658,"vers":3659,"zing":3660,"attle":3661,"leas":3662,"Chris":3663,"Sher":3664,"Shame":3665,"Seattle":3666,"Newmar":3667,"antula":3668,"Blazing":3669,"ivago":3670,"Clara":3671,"Arrest":3672,"Wales":3673,"Conc":3674,"Expect":3675,"Goodfel":3676,"Onegin":3677,"Terrestrial":3678,"Getaway":3679,"Barry":3680,"Romantic":3681,"Knights":3682,"Tarantula":3683,"Everything":3684,"Extra":3685,"Bamba":3686,"Evening":3687,"Thanks":3688,"Congo":3689,"Canyon":3690,"Clyde":3691,"Saddles":3692,"Vietnam":3693,"Zhivago":3694,"Expectations":3695,"Goodfellas":3696,"Bite":3697,"Fer":3698,"His":3699,"Jaf":3700,"Mild":3701,"Nav":3702,"Pist":3703,"Pierce":3704,"Pleas":3705,"Zie":3706,"aul":3707,"gfeld":3708,"iors":3709,"ju":3710,"onim":3711,"erle":3712,"ols":3713,"Loss":3714,"Chick":3715,"oph":3716,"eller":3717,"Lead":3718,"Peach":3719,"Apoll":3720,"Exit":3721,"Holm":3722,"rona":3723,"Disco":3724,"tini":3725,"Turbo":3726,"Assaul":3727,"Sexual":3728,"Cowboys":3729,"Cheerle":3730,"Reality":3731,"Precin":3732,"Stripes":3733,"kinhead":3734,"Santini":3735,"Yeller":3736,"Interiors":3737,"Champions":3738,"Grumpy":3739,"Translation":3740,"ipped":3741,"Pumpkinhead":3742,"Geronim":3743,"Babysitter":3744,"Dragon":3745,"Bites":3746,"Ferris":3747,"Jafar":3748,"Mildred":3749,"Navar":3750,"Pistols":3751,"Ziegfeld":3752,"Chicken":3753,"Apollo":3754,"Assault":3755,"Cheerleader":3756,"Precinct":3757,"Dragonheart":3758,"Blew":3759,"Cig":3760,"Cec":3761,"Caper":3762,"Dt":3763,"Davy":3764,"EDt":3765,"Jose":3766,"Rapp":3767,"amers":3768,"bro":3769,"bush":3770,"gro":3771,"gate":3772,"ik":3773,"uise":3774,"tes":3775,"ett":3776,"ckett":3777,"aport":3778,"Dove":3779,"antville":3780,"Scary":3781,"Stargate":3782,"Ark":3783,"view":3784,"Excal":3785,"Homegro":3786,"Crockett":3787,"Affection":3788,"ibur":3789,"Johns":3790,"Demented":3791,"Screamers":3792,"Presidio":3793,"Lords":3794,"arettes":3795,"Flatbush":3796,"Bonnie":3797,"Object":3798,"Grandview":3799,"Bueller":3800,"Frequen":3801,"Sherlock":3802,"Pleasantville":3803,"Holmes":3804,"Navarone":3805,"Cigarettes":3806,"Cecil":3807,"EDtv":3808,"Josey":3809,"Rappaport":3810,"Excalibur":3811,"Homegrown":3812,"Frequency":3813,"24":3814,"8mm":3815,"Ast":3816,"Mull":3817,"Rag":3818,"Rio":3819,"fish":3820,"gi":3821,"mom":3822,"wich":3823,"ispe":3824,"idel":3825,"Loving":3826,"Picass":3827,"Whispe":3828,"Wars":3829,"2001":3830,"lands":3831,"Blame":3832,"issipp":3833,"ickers":3834,"umps":3835,"Catfish":3836,"Slickers":3837,"Bats":3838,"Sheik":3839,"Mississipp":3840,"Greenwich":3841,"Smith":3842,"Sauce":3843,"Raiders":3844,"Pope":3845,"Curly":3846,"Stir":3847,"Horse":3848,"Election":3849,"Stepmom":3850,"Klumps":3851,"Months":3852,"Modern":3853,"Raisin":3854,"Balto":3855,"Cookie":3856,"Paulie":3857,"Hugo":3858,"ronaut":3859,"Geronimo":3860,"Astronaut":3861,"Raging":3862,"Picasso":3863,"Whisperer":3864,"Mississippi":3865,"Cone":3866,"Case":3867,"Echo":3868,"Factor":3869,"Fidel":3870,"Nell":3871,"Pawn":3872,"Rage":3873,"Rud":3874,"Sull":3875,"Tango":3876,"bul":3877,"yl":3878,"yer":3879,"oux":3880,"etpro":3881,"hoe":3882,"ieur":3883,"1971":3884,"onda":3885,"ivan":3886,"Outbreak":3887,"ocaly":3888,"Fled":3889,"Holland":3890,"Harold":3891,"Cruise":3892,"atown":3893,"Paradine":3894,"Bulletpro":3895,"matians":3896,"Prison":3897,"Limits":3898,"McMull":3899,"Works":3900,"Opus":3901,"Silence":3902,"Klute":3903,"Monsieur":3904,"Radioland":3905,"Candleshoe":3906,"Dalmatians":3907,"Ripe":3908,"Chinatown":3909,"Verdoux":3910,"broker":3911,"Coneheads":3912,"Echoes":3913,"Fidelity":3914,"Pawnbroker":3915,"Sullivan":3916,"ocalyp":3917,"Bulletproof":3918,"McMullen":3919,"Cous":3920,"Guff":3921,"Hamp":3922,"Rap":3923,"Suture":3924,"Tumb":3925,"Tiff":3926,"Wanda":3927,"Zor":3928,"ared":3929,"bur":3930,"bury":3931,"ture":3932,"anne":3933,"olia":3934,"used":3935,"Mario":3936,"Toys":3937,"earment":3938,"Angry":3939,"iper":3940,"perfor":3941,"Endearment":3942,"Travels":3943,"Stranger":3944,"Turtle":3945,"Turbul":3946,"Insom":3947,"Feet":3948,"Karen":3949,"Grapes":3950,"Diary":3951,"Miniver":3952,"Terms":3953,"Called":3954,"eeds":3955,"leweeds":3956,"Sundance":3957,"Passage":3958,"Wrongfully":3959,"Lowdown":3960,"Bully":3961,"Magnolia":3962,"Viva":3963,"Accused":3964,"Cousin":3965,"Guffman":3966,"Rapture":3967,"Tumbleweeds":3968,"Tiffany":3969,"Zorro":3970,"Turbulence":3971,"Bilk":3972,"Cu":3973,"Ced":3974,"Dict":3975,"Fay":3976,"Jedi":3977,"Kane":3978,"Key":3979,"Rou":3980,"Ringers":3981,"Sg":3982,"Sue":3983,"Vis":3984,"Vide":3985,"Zo":3986,"bidden":3987,"jo":3988,"pers":3989,"rage":3990,"trip":3991,"rey":3992,"tild":3993,"armist":3994,"stabout":3995,"ternation":3996,"anha":3997,"Lovel":3998,"Shane":3999,"Sphere":4000,"Internation":4001,"Alarmist":4002,"otape":4003,"Daytrip":4004,"aboo":4005,"mance":4006,"Aces":4007,"Colors":4008,"Forbidden":4009,"Outfield":4010,"Outrage":4011,"Caraboo":4012,"Matild":4013,"tons":4014,"Resurrection":4015,"Jerem":4016,"Johnson":4017,"Sleepless":4018,"Largo":4019,"Idle":4020,"Buffy":4021,"Slayer":4022,"Birdy":4023,"Shagged":4024,"Encino":4025,"Wishes":4026,"Condorman":4027,"Piranha":4028,"Bedroom":4029,"Hamptons":4030,"performance":4031,"Karenina":4032,"Bilko":4033,"Cujo":4034,"Cedars":4035,"Dictator":4036,"Faye":4037,"Roustabout":4038,"Sgt":4039,"Videotape":4040,"Lovely":4041,"International":4042,"Daytrippers":4043,"Outrageous":4044,"Matilda":4045,"Jeremiah":4046,"80":4047,"Dress":4048,"Gala":4049,"Hang":4050,"Jag":4051,"Lone":4052,"Oran":4053,"Sud":4054,"Wing":4055,"cage":4056,"hook":4057,"mie":4058,"otive":4059,"pico":4060,"piper":4061,"ween":4062,"tese":4063,"comotive":4064,"eless":4065,"etle":4066,"olute":4067,"Deare":4068,"Locomotive":4069,"Beetle":4070,"forgi":4071,"Unhook":4072,"Unforgi":4073,"Maude":4074,"Foxfire":4075,"Fearless":4076,"Fisher":4077,"Maltese":4078,"Mommie":4079,"Between":4080,"Serpico":4081,"Anywhere":4082,"Birdcage":4083,"Against":4084,"denly":4085,"Senseless":4086,"Susan":4087,"Odds":4088,"Monster":4089,"Sandpiper":4090,"Commander":4091,"Absolute":4092,"Frost":4093,"Browne":4094,"Tigerland":4095,"juice":4096,"Galaxy":4097,"Jagged":4098,"Orange":4099,"Suddenly":4100,"Dearest":4101,"Beetlejuice":4102,"Unforgiven":4103,"Burd":4104,"Gump":4105,"Hack":4106,"Jess":4107,"Nude":4108,"Ol":4109,"Oo":4110,"Tall":4111,"oom":4112,"pins":4113,"uers":4114,"we":4115,"rew":4116,"ending":4117,"artac":4118,"aconda":4119,"erent":4120,"asion":4121,"Threes":4122,"lybur":4123,"Bloom":4124,"formers":4125,"Spartac":4126,"fferent":4127,"Invis":4128,"Anaconda":4129,"1977":4130,"Scared":4131,"Forrest":4132,"indhouse":4133,"achel":4134,"starter":4135,"phin":4136,"Pool":4137,"Grindhouse":4138,"Firestarter":4139,"Kissing":4140,"Batch":4141,"1927":4142,"Pride":4143,"Malice":4144,"Poppins":4145,"Brains":4146,"Momma":4147,"Hurlybur":4148,"Different":4149,"Limbo":4150,"Cabin":4151,"Dolls":4152,"Damien":4153,"Morphin":4154,"Nowhere":4155,"Cutter":4156,"Grit":4157,"Foreign":4158,"Hideaway":4159,"Honors":4160,"Lesser":4161,"Diggers":4162,"Transformers":4163,"Rescuers":4164,"Roxbury":4165,"Celtic":4166,"Defending":4167,"Burden":4168,"Oliver":4169,"Ooze":4170,"Threesome":4171,"Spartacus":4172,"Invisible":4173,"Hurlyburly":4174,"Burb":4175,"Bachel":4176,"Gy":4177,"Gild":4178,"Jingle":4179,"Mice":4180,"Of":4181,"Ody":4182,"Ru":4183,"Sting":4184,"roit":4185,"eline":4186,"geons":4187,"iden":4188,"unteers":4189,"Wear":4190,"Weird":4191,"Plaid":4192,"Blair":4193,"board":4194,"Apocalyp":4195,"Confess":4196,"Flier":4197,"Maiden":4198,"Amade":4199,"Madeline":4200,"Sunset":4201,"Clay":4202,"Barney":4203,"Guess":4204,"Craven":4205,"Richer":4206,"Trial":4207,"Dinner":4208,"Toxie":4209,"Citizens":4210,"Strangeland":4211,"Patrol":4212,"Volunteers":4213,"Armed":4214,"urian":4215,"Magnum":4216,"Cupboard":4217,"Detroit":4218,"Pigeons":4219,"ssey":4220,"Poorer":4221,"Producers":4222,"Spanking":4223,"Rudy":4224,"Hackers":4225,"Jesse":4226,"Burbs":4227,"Bachelor":4228,"Gypsy":4229,"Gilda":4230,"Odyssey":4231,"Amadeus":4232,"Ginger":4233,"Page":4234,"Pond":4235,"Selena":4236,"Tights":4237,"cing":4238,"tingu":4239,"ished":4240,"Stala":4241,"Spell":4242,"emary":4243,"Whipped":4244,"Blast":4245,"Scent":4246,"Cluel":4247,"1945":4248,"Distingu":4249,"ustry":4250,"Tomb":4251,"Craft":4252,"Badlands":4253,"maid":4254,"Industry":4255,"Mumford":4256,"Romancing":4257,"Standing":4258,"Zeus":4259,"Roxanne":4260,"Singin":4261,"Rosemary":4262,"Incredible":4263,"plays":4264,"bread":4265,"Ruby":4266,"Gingerbread":4267,"Pagemaster":4268,"Stalag":4269,"Spellbound":4270,"Clueless":4271,"Distinguished":4272,"Av":4273,"Lass":4274,"Oce":4275,"Roll":4276,"Vin":4277,"bol":4278,"dance":4279,"fontain":4280,"glar":4281,"line":4282,"liction":4283,"enting":4284,"erco":4285,"Them":4286,"igula":4287,"Blown":4288,"Douce":4289,"1954":4290,"ondent":4291,"Trust":4292,"Flyers":4293,"Glimmer":4294,"Corresp":4295,"Affliction":4296,"Territ":4297,"Loser":4298,"Caligula":4299,"Lightfoot":4300,"Square":4301,"Sixth":4302,"Animal":4303,"Prefontain":4304,"Thunderbol":4305,"Presidents":4306,"Volume":4307,"Abbotts":4308,"Singles":4309,"Tammy":4310,"Inventing":4311,"Cobra":4312,"Doubtfire":4313,"Irma":4314,"Pelican":4315,"Manchurian":4316,"Critical":4317,"Burglar":4318,"Zoe":4319,"Apocalypse":4320,"Lassie":4321,"Ocean":4322,"Rollerco":4323,"Correspondent":4324,"Territory":4325,"Prefontaine":4326,"Thunderbolt":4327,"Rollercoaster":4328,"Curd":4329,"Faster":4330,"Lul":4331,"Mim":4332,"Mall":4333,"Pus":4334,"Tut":4335,"Tie":4336,"Tem":4337,"hrod":4338,"niac":4339,"watch":4340,"tigo":4341,"late":4342,"Decis":4343,"Nightwatch":4344,"aths":4345,"Always":4346,"Twice":4347,"Aphrod":4348,"Blackbe":4349,"colate":4350,"Awake":4351,"Donkey":4352,"Bram":4353,"sycat":4354,"Soyl":4355,"Below":4356,"Vertigo":4357,"Stoker":4358,"Team":4359,"Tease":4360,"Sixteen":4361,"Training":4362,"Chocolate":4363,"Julien":4364,"nche":4365,"Relic":4366,"Flashdance":4367,"Marked":4368,"Insomniac":4369,"Curdled":4370,"Lulu":4371,"Mimic":4372,"Mallrats":4373,"Pussycat":4374,"Tutor":4375,"Temple":4376,"Decision":4377,"Aphrodite":4378,"Blackbeard":4379,"Soylent":4380,"Nuke":4381,"VII":4382,"case":4383,"eb":4384,"ient":4385,"ril":4386,"tease":4387,"inte":4388,"Stair":4389,"Stake":4390,"iral":4391,"hog":4392,"usk":4393,"cker":4394,"Rear":4395,"Spiral":4396,"agen":4397,"boy":4398,"April":4399,"undhog":4400,"Pointe":4401,"Rainmaker":4402,"Rainbow":4403,"Remagen":4404,"Grosse":4405,"Groundhog":4406,"Enterprise":4407,"Waterboy":4408,"alanche":4409,"Rangoon":4410,"Striptease":4411,"Shelley":4412,"Encounters":4413,"Avalanche":4414,"Staircase":4415,"Stakeout":4416,"6th":4417,"Aud":4418,"Bush":4419,"Bord":4420,"Cell":4421,"Dusk":4422,"Event":4423,"Gar":4424,"Jenn":4425,"bill":4426,"tine":4427,"till":4428,"tions":4429,"atever":4430,"touch":4431,"rid":4432,"Whatever":4433,"acked":4434,"Untouch":4435,"ables":4436,"Pecker":4437,"Arc":4438,"1939":4439,"Bloodline":4440,"Hillbill":4441,"whacked":4442,"Bridges":4443,"ifer":4444,"Heavywe":4445,"Slate":4446,"Clean":4447,"Circus":4448,"Charl":4449,"Celeb":4450,"Sugarland":4451,"Flamingos":4452,"walk":4453,"musical":4454,"Audrey":4455,"Bushwhacked":4456,"Bordello":4457,"Jennifer":4458,"Untouchables":4459,"Hillbillies":4460,"Heavyweights":4461,"Celebrity":4462,"28":4463,"Bank":4464,"Fiction":4465,"Hi":4466,"H20":4467,"Later":4468,"Race":4469,"drive":4470,"eur":4471,"face":4472,"rings":4473,"va":4474,"rope":4475,"acon":4476,"belina":4477,"erings":4478,"olmaker":4479,"igger":4480,"umbelina":4481,"Thumbelina":4482,"Chau":4483,"dron":4484,"uldron":4485,"ffeur":4486,"Why":4487,"Leather":4488,"Client":4489,"Trigger":4490,"Conne":4491,"Offerings":4492,"Popey":4493,"Knightrid":4494,"Senior":4495,"Overdrive":4496,"Cauldron":4497,"Idolmaker":4498,"Mike":4499,"Freaky":4500,"Creeps":4501,"Earrings":4502,"Ruthless":4503,"Fishes":4504,"Christine":4505,"Vinny":4506,"Chauffeur":4507,"Leatherface":4508,"Popeye":4509,"Knightriders":4510,"79":4511,"County":4512,"Dial":4513,"Fare":4514,"Gay":4515,"Lie":4516,"Lamb":4517,"Maps":4518,"Sac":4519,"Soph":4520,"Tresp":4521,"Vist":4522,"Would":4523,"burn":4524,"cast":4525,"dish":4526,"wink":4527,"teor":4528,"orde":4529,"Shy":4530,"Shield":4531,"Blink":4532,"apdish":4533,"Annie":4534,"Meteor":4535,"Martian":4536,"assers":4537,"Tracy":4538,"Ape":4539,"Reds":4540,"Soapdish":4541,"Bullwink":4542,"Willow":4543,"Limey":4544,"Jerk":4545,"Choice":4546,"Broadcast":4547,"Recall":4548,"Suicides":4549,"Buena":4550,"Sands":4551,"Newsies":4552,"rifice":4553,"Moreau":4554,"Concorde":4555,"Farewell":4556,"Lambs":4557,"Sacrifice":4558,"Sophie":4559,"Trespassers":4560,"Vista":4561,"Bullwinkle":4562,"wan":4563,"enant":4564,"lector":4565,"utenant":4566,"Martians":4567,"Collector":4568,"quers":4569,"Conquers":4570,"Heartburn":4571,"Mona":4572,"Candle":4573,"Soup":4574,"Target":4575,"Burning":4576,"Somewhere":4577,"Merry":4578,"Silent":4579,"Seeking":4580,"Desperately":4581,"orcee":4582,"Divorcee":4583,"Ballou":4584,"Prisoners":4585,"Lieutenant":4586,"Bacon":4587,"Krip":4588,"Mate":4589,"Nur":4590,"Norm":4591,"gmat":4592,"oid":4593,"uire":4594,"orf":4595,"Local":4596,"oset":4597,"imp":4598,"uloid":4599,"irec":4600,"uest":4601,"ackdown":4602,"Closet":4603,"Proof":4604,"1935":4605,"Polish":4606,"Runner":4607,"pendorf":4608,"Crackdown":4609,"Maguire":4610,"Ninth":4611,"Betty":4612,"azz":4613,"Tribe":4614,"Stigmat":4615,"Front":4616,"Campus":4617,"Celluloid":4618,"Krippendorf":4619,"Matewan":4620,"Nurse":4621,"Normal":4622,"Stigmata":4623,"Bounty":4624,"Cave":4625,"Dug":4626,"Eu":4627,"Gum":4628,"Mine":4629,"Pimp":4630,"Tell":4631,"Tilt":4632,"bec":4633,"ca":4634,"cid":4635,"fight":4636,"iach":4637,"od":4638,"lan":4639,"Stag":4640,"Rebec":4641,"Blob":4642,"Placid":4643,"Mariach":4644,"ublic":4645,"Highway":4646,"Girlfight":4647,"tiny":4648,"Clan":4649,"ught":4650,"Caught":4651,"Vampires":4652,"Heretic":4653,"Urbania":4654,"Phantoms":4655,"Thought":4656,"Flamingo":4657,"Shining":4658,"Mutiny":4659,"Connection":4660,"Dugan":4661,"Gumby":4662,"Telling":4663,"Rebecca":4664,"Mariachi":4665,"Cass":4666,"Fighter":4667,"Gorge":4668,"Hels":4669,"Hote":4670,"Jazz":4671,"Kund":4672,"Luke":4673,"bage":4674,"onies":4675,"orious":4676,"vior":4677,"ely":4678,"ishment":4679,"ndon":4680,"ceiving":4681,"Beha":4682,"usade":4683,"Chain":4684,"Shrew":4685,"Reaction":4686,"1973":4687,"1952":4688,"Ada":4689,"Goonies":4690,"Forty":4691,"Conceiving":4692,"Timecop":4693,"nova":4694,"Treat":4695,"Bruce":4696,"Catch":4697,"Crusade":4698,"Sonja":4699,"Pail":4700,"Supernova":4701,"Common":4702,"Stood":4703,"Longest":4704,"Notorious":4705,"urbing":4706,"Doctors":4707,"Social":4708,"Striking":4709,"Friends":4710,"Dallas":4711,"Taming":4712,"Invasion":4713,"Distance":4714,"Disturbing":4715,"Shines":4716,"Butcher":4717,"Lyndon":4718,"Logan":4719,"Garbage":4720,"ropean":4721,"European":4722,"Gorgeous":4723,"Helsing":4724,"Hotel":4725,"Kundun":4726,"Behavior":4727,"Bay":4728,"Find":4729,"Lon":4730,"Nad":4731,"Nick":4732,"Paths":4733,"Public":4734,"bl":4735,"plic":4736,"tant":4737,"tiplic":4738,"uctant":4739,"ante":4740,"agement":4741,"idy":4742,"Debut":4743,"Roger":4744,"children":4745,"ulty":4746,"ffiti":4747,"Access":4748,"Glenda":4749,"Kissed":4750,"Heroin":4751,"Richie":4752,"Graffiti":4753,"Sleepwalk":4754,"Thinner":4755,"Bandits":4756,"Faculty":4757,"Multiplic":4758,"Reluctant":4759,"Looking":4760,"Engagement":4761,"Cassidy":4762,"Finding":4763,"Lonely":4764,"Debutante":4765,"Sleepwalkers":4766,"Multiplicity":4767,"3D":4768,"Kah":4769,"Laby":4770,"Pul":4771,"Rub":4772,"Sight":4773,"glow":4774,"ners":4775,"napp":4776,"stal":4777,"elight":4778,"una":4779,"Blind":4780,"Kidnapp":4781,"rinth":4782,"Eliz":4783,"peror":4784,"Wishmaster":4785,"Price":4786,"Afterglow":4787,"Limelight":4788,"Cabaret":4789,"Crossfire":4790,"Emperor":4791,"Bambi":4792,"Daughter":4793,"Melody":4794,"winners":4795,"Cobb":4796,"Geniuses":4797,"Awakenings":4798,"Kahuna":4799,"Labyrinth":4800,"Pulp":4801,"Rubies":4802,"Kidnapped":4803,"57":4804,"Furi":4805,"Hung":4806,"hold":4807,"eners":4808,"rez":4809,"rets":4810,"terrence":4811,"orph":4812,"edles":4813,"Deterrence":4814,"Deedles":4815,"Loves":4816,"Behold":4817,"athless":4818,"abeth":4819,"Perez":4820,"Forget":4821,"Dogma":4822,"Secrets":4823,"Firm":4824,"Played":4825,"Creature":4826,"Seventeen":4827,"Betray":4828,"Repossess":4829,"Mermaid":4830,"President":4831,"Louis":4832,"Venus":4833,"Courage":4834,"Frighteners":4835,"Breathless":4836,"Elizabeth":4837,"571":4838,"Furious":4839,"Hunger":4840,"Beholder":4841,"Betrayed":4842,"Repossessed":4843,"Hip":4844,"Hush":4845,"Panda":4846,"her":4847,"jun":4848,"obe":4849,"inat":4850,"ana":4851,"uminat":4852,"Inher":4853,"Amaz":4854,"Globe":4855,"Just":4856,"Joey":4857,"izaire":4858,"Titus":4859,"Belizaire":4860,"Crystal":4861,"Sleepy":4862,"Cajun":4863,"Illuminat":4864,"Harvey":4865,"Inherit":4866,"Amazing":4867,"Illuminata":4868,"Ras":4869,"enna":4870,"toon":4871,"amond":4872,"Pick":4873,"Platoon":4874,"quake":4875,"Apost":4876,"Earthquake":4877,"Barre":4878,"Diamond":4879,"101":4880,"Casino":4881,"cals":4882,"Conquered":4883,"Bronco":4884,"Rascals":4885,"Apostle":4886,"Ayn":4887,"Kronos":4888,"Mach":4889,"iot":4890,"store":4891,"ucer":4892,"Lock":4893,"Roan":4894,"ffy":4895,"Inish":4896,"agedd":4897,"Marnie":4898,"Pest":4899,"Comet":4900,"ugstore":4901,"Goodnight":4902,"Drugstore":4903,"Travel":4904,"Hellbound":4905,"Saucer":4906,"Stock":4907,"Daffy":4908,"Smoking":4909,"Armagedd":4910,"Payne":4911,"Chariot":4912,"Guardian":4913,"Assassins":4914,"Related":4915,"blood":4916,"Barrels":4917,"Machine":4918,"Traveler":4919,"Armageddon":4920,"Chariots":4921,"52":4922,"Hoop":4923,"Kno":4924,"Mack":4925,"Oz":4926,"Pin":4927,"omper":4928,"igade":4929,"Boond":4930,"Meets":4931,"Brigade":4932,"Org":4933,"Birds":4934,"Tequi":4935,"Coldblood":4936,"Wagon":4937,"Conquest":4938,"Court":4939,"Seasons":4940,"Knock":4941,"Mackenna":4942,"Boondock":4943,"Tequila":4944,"Coldblooded":4945,"Drow":4946,"Ladd":4947,"nings":4948,"Anne":4949,"2005":4950,"Cliff":4951,"Tramp":4952,"Carried":4953,"Runnings":4954,"Cowgirls":4955,"Attacks":4956,"Nadine":4957,"Drowning":4958,"Ils":4959,"Jac":4960,"Lily":4961,"Rab":4962,"SS":4963,"Toll":4964,"dger":4965,"side":4966,"lem":4967,"Lodger":4968,"Chucky":4969,"Whom":4970,"Harlem":4971,"Roadside":4972,"azmo":4973,"Minded":4974,"Dollar":4975,"Chop":4976,"Punishment":4977,"Prophets":4978,"Raising":4979,"Absent":4980,"Suburbia":4981,"Orgazmo":4982,"Ilsa":4983,"Jacob":4984,"Tolls":4985,"hanger":4986,"nic":4987,"ination":4988,"Reed":4989,"ept":4990,"Swept":4991,"Firewal":4992,"Plans":4993,"Spaceballs":4994,"Laid":4995,"Assassination":4996,"Ladder":4997,"Cliffhanger":4998,"Firewalker":4999,"Huck":5000,"Jim":5001,"kind":5002,"alt":5003,"Mankind":5004,"verick":5005,"Boat":5006,"Fries":5007,"Carr":5008,"Heartbreak":5009,"Maverick":5010,"phalt":5011,"Worlds":5012,"Voice":5013,"Notting":5014,"Asphalt":5015,"Contact":5016,"Source":5017,"oks":5018,"war":5019,"xie":5020,"amber":5021,"unks":5022,"1964":5023,"Drunks":5024,"Trixie":5025,"Punch":5026,"Jumpin":5027,"Montana":5028,"Carrington":5029,"Boun":5030,"Coug":5031,"Goss":5032,"Kent":5033,"Lones":5034,"iri":5035,"ser":5036,"ilo":5037,"Lose":5038,"Spawn":5039,"manent":5040,"Collins":5041,"Crooks":5042,"Rail":5043,"Rooms":5044,"Permanent":5045,"Tigers":5046,"1970s":5047,"Primary":5048,"Montage":5049,"Album":5050,"Switchback":5051,"Charlie":5052,"Bountiful":5053,"Cougar":5054,"Gossip":5055,"Kentucky":5056,"Lonesome":5057,"Duel":5058,"Haw":5059,"Lin":5060,"bit":5061,"lum":5062,"Chamber":5063,"Liber":5064,"Twel":5065,"Isa":5066,"Talented":5067,"Framed":5068,"Westworld":5069,"Hoodlum":5070,"Maya":5071,"Freeway":5072,"Generations":5073,"Thunderball":5074,"Andrew":5075,"Ripley":5076,"Suburbans":5077,"Vision":5078,"Bayou":5079,"Rabbit":5080,"Liberty":5081,"Drif":5082,"Jr":5083,"Kum":5084,"Rise":5085,"aver":5086,"bio":5087,"gar":5088,"Deal":5089,"Rev":5090,"Plains":5091,"Leuch":5092,"Twist":5093,"Carli":5094,"Goodman":5095,"Harp":5096,"aii":5097,"Benny":5098,"graphical":5099,"Tommy":5100,"Jeff":5101,"Weddings":5102,"Native":5103,"Shallow":5104,"Chairs":5105,"Hawaii":5106,"Twelve":5107,"Isaiah":5108,"Drifter":5109,"Kumite":5110,"Leuchter":5111,"Carlito":5112,"Gand":5113,"Wick":5114,"director":5115,"direc":5116,"acem":5117,"Peacem":5118,"Comes":5119,"Brenda":5120,"Swan":5121,"Losing":5122,"Quiz":5123,"bered":5124,"Impact":5125,"Remembered":5126,"Fantastic":5127,"Gandhi":5128,"Wicked":5129,"directed":5130,"Peacemaker":5131,"D2":5132,"ete":5133,"vlin":5134,"ald":5135,"Devlin":5136,"Beaver":5137,"Anch":5138,"Starr":5139,"Rockete":5140,"Firelight":5141,"Design":5142,"Avengers":5143,"Habit":5144,"Rocketeer":5145,"Nix":5146,"Ross":5147,"Tic":5148,"ka":5149,"watchers":5150,"ele":5151,"anth":5152,"entary":5153,"umentary":5154,"Squall":5155,"Clockwatchers":5156,"Pirate":5157,"Atlan":5158,"Nixon":5159,"Ned":5160,"Pend":5161,"bear":5162,"cles":5163,"die":5164,"eigh":5165,"cher":5166,"ulum":5167,"Unbear":5168,"lando":5169,"Airheads":5170,"noir":5171,"Aweigh":5172,"peare":5173,"Muscles":5174,"Orlando":5175,"Lightness":5176,"Soldiers":5177,"Glengar":5178,"Shakespeare":5179,"Anchors":5180,"Pendulum":5181,"Unbearable":5182,"Glengarry":5183,"Drive":5184,"Gor":5185,"Imm":5186,"Romy":5187,"Wil":5188,"Wins":5189,"can":5190,"fters":5191,"ric":5192,"iem":5193,"Requ":5194,"Amos":5195,"inson":5196,"Eddie":5197,"ibly":5198,"Risky":5199,"Michele":5200,"Robinson":5201,"Grifters":5202,"ontas":5203,"Incredibly":5204,"ahontas":5205,"Business":5206,"Pocahontas":5207,"biographical":5208,"Atlantic":5209,"Gordy":5210,"Immortal":5211,"Requiem":5212,"Watch":5213,"oged":5214,"wro":5215,"writ":5216,"rooged":5217,"omorph":5218,"nge":5219,"ese":5220,"Greaser":5221,"Scrooged":5222,"Timeco":5223,"Disaster":5224,"Trees":5225,"Howling":5226,"Turvy":5227,"ropomorph":5228,"Searching":5229,"Check":5230,"Topsy":5231,"Bobby":5232,"Lounge":5233,"Freaks":5234,"Flirting":5235,"Fischer":5236,"anthropomorph":5237,"wrote":5238,"writter":5239,"Timecode":5240,"anthropomorphic":5241,"Pill":5242,"Pup":5243,"Sir":5244,"Sorce":5245,"zled":5246,"arac":5247,"icted":5248,"oozled":5249,"charac":5250,"Brother":5251,"Apt":5252,"Swiss":5253,"Crash":5254,"Titans":5255,"Quick":5256,"Johnny":5257,"Someone":5258,"Rosewood":5259,"Gigi":5260,"Volcan":5261,"Bamboozled":5262,"Addicted":5263,"Pillow":5264,"Pupil":5265,"Sorcerer":5266,"characters":5267,"Volcano":5268,"Dry":5269,"cilla":5270,"lo":5271,"mates":5272,"sa":5273,"ender":5274,"road":5275,"iscilla":5276,"ido":5277,"raker":5278,"France":5279,"Harriet":5280,"1921":5281,"Doug":5282,"Guido":5283,"Roommates":5284,"Lights":5285,"Priscilla":5286,"Specials":5287,"Fresh":5288,"Denver":5289,"Denise":5290,"Dim":5291,"East":5292,"Tide":5293,"Taking":5294,"onic":5295,"ope":5296,"ipper":5297,"ennis":5298,"Pelham":5299,"Jefferson":5300,"Dad":5301,"Hust":5302,"Mow":5303,"Sign":5304,"gli":5305,"men":5306,"wee":5307,"Americans":5308,"uss":5309,"Pee":5310,"Crooklyn":5311,"Madame":5312,"Runs":5313,"Moonraker":5314,"Insurrection":5315,"Getting":5316,"Brain":5317,"Quilt":5318,"Values":5319,"Tigger":5320,"Baloo":5321,"Bronx":5322,"Awakening":5323,"Duty":5324,"Railroad":5325,"Mowgli":5326,"Aut":5327,"Etern":5328,"Mne":5329,"Pig":5330,"Russ":5331,"Singer":5332,"Til":5333,"monic":5334,"nighter":5335,"inable":5336,"ominable":5337,"entino":5338,"anim":5339,"umn":5340,"osal":5341,"Left":5342,"Clown":5343,"Allnighter":5344,"Abominable":5345,"Hallways":5346,"ecent":5347,"Moonlight":5348,"Indecent":5349,"Valentino":5350,"Mikey":5351,"Proposal":5352,"Bedrooms":5353,"Fields":5354,"Fellow":5355,"Mercury":5356,"Wilde":5357,"Autumn":5358,"Eternity":5359,"Mnemonic":5360,"1st":5361,"Bait":5362,"Daz":5363,"Fate":5364,"Giving":5365,"Hale":5366,"Navy":5367,"aville":5368,"aison":5369,"etic":5370,"ution":5371,"isco":5372,"etto":5373,"Deceiver":5374,"vered":5375,"Neo":5376,"Board":5377,"Liaison":5378,"Spot":5379,"Carlo":5380,"Monte":5381,"Talking":5382,"Undisco":5383,"Calm":5384,"Compass":5385,"McHale":5386,"Haunted":5387,"Clockwork":5388,"Virtue":5389,"Chairman":5390,"Palmetto":5391,"Jimmy":5392,"Hustler":5393,"Daze":5394,"Liaisons":5395,"Undiscovered":5396,"Hus":5397,"Ide":5398,"Match":5399,"Mute":5400,"band":5401,"fran":5402,"gs":5403,"ition":5404,"nop":5405,"wed":5406,"ya":5407,"enomen":5408,"tible":5409,"icago":5410,"iscop":5411,"istible":5412,"hobia":5413,"Chicago":5414,"imming":5415,"chise":5416,"Sharks":5417,"Arach":5418,"resistible":5419,"Poetic":5420,"Swimming":5421,"Phenomen":5422,"ookaville":5423,"Insider":5424,"Periscop":5425,"Crying":5426,"Valour":5427,"Screwed":5428,"Palookaville":5429,"Condition":5430,"Irresistible":5431,"Albino":5432,"Simply":5433,"String":5434,"Compassion":5435,"Husband":5436,"Ideal":5437,"Matchmaker":5438,"franchise":5439,"nophobia":5440,"Arachnophobia":5441,"Phenomenon":5442,"Periscope":5443,"Food":5444,"Miser":5445,"Pall":5446,"Patch":5447,"loo":5448,"org":5449,"edful":5450,"olis":5451,"unk":5452,"Needful":5453,"sequen":5454,"Adams":5455,"arer":5456,"arella":5457,"Arrow":5458,"Golds":5459,"Consequen":5460,"Player":5461,"Soul":5462,"Smile":5463,"bearer":5464,"Lightning":5465,"Yours":5466,"Loud":5467,"Barbarella":5468,"Replacements":5469,"Sarah":5470,"Simpatic":5471,"Footloo":5472,"Misery":5473,"Pallbearer":5474,"Consequences":5475,"Simpatico":5476,"Footloose":5477,"37th":5478,"Bind":5479,"Bustin":5480,"Cai":5481,"Kin":5482,"Woo":5483,"con":5484,"mith":5485,"til":5486,"ading":5487,"thday":5488,"Until":5489,"Leav":5490,"Trading":5491,"Creole":5492,"Giants":5493,"Henriet":5494,"Birthday":5495,"Sabote":5496,"Saves":5497,"Loose":5498,"Gillian":5499,"Goldsmith":5500,"Binds":5501,"Cairo":5502,"Leaving":5503,"Henrietta":5504,"Saboteur":5505,"Cube":5506,"Fie":5507,"Hope":5508,"Mour":5509,"Nil":5510,"Tender":5511,"fina":5512,"pot":5513,"runk":5514,"tering":5515,"terhouse":5516,"1900":5517,"atomy":5518,"that":5519,"irteen":5520,"Thirteen":5521,"Been":5522,"osure":5523,"Shrunk":5524,"Anatomy":5525,"Tron":5526,"Discl":5527,"inspot":5528,"Trainspot":5529,"Edward":5530,"ughterhouse":5531,"nail":5532,"Withnail":5533,"Computer":5534,"Jawbreak":5535,"Slaughterhouse":5536,"Extrem":5537,"Sheltering":5538,"Lyric":5539,"Sarafina":5540,"Floor":5541,"Mercies":5542,"Designated":5543,"Fievel":5544,"Mourner":5545,"Thirteenth":5546,"Disclosure":5547,"Trainspotting":5548,"Jawbreaker":5549,"Extremities":5550,"Eighty":5551,"Gould":5552,"RV":5553,"Ray":5554,"Tennis":5555,"Vie":5556,"Wore":5557,"cel":5558,"hand":5559,"raction":5560,"onna":5561,"room":5562,"orhand":5563,"itting":5564,"Shine":5565,"Spiri":5566,"Brown":5567,"Brian":5568,"Sciss":5569,"Goldfinger":5570,"Appe":5571,"Madonna":5572,"romaniac":5573,"Legacy":5574,"Steel":5575,"Sheep":5576,"Barcel":5577,"Attraction":5578,"Nineteen":5579,"Bowl":5580,"Pyromaniac":5581,"Babysitting":5582,"Shoes":5583,"View":5584,"orhands":5585,"Spirits":5586,"Scissorhands":5587,"Appeal":5588,"Barcelona":5589,"98":5590,"Fif":5591,"Gam":5592,"Hav":5593,"Many":5594,"Mix":5595,"ored":5596,"summer":5597,"tiator":5598,"igold":5599,"Picnic":5600,"Nego":5601,"Inten":5602,"Meg":5603,"Marigold":5604,"Forest":5605,"ubr":5606,"Swing":5607,"Hardly":5608,"Cruel":5609,"Queens":5610,"Midsummer":5611,"Impost":5612,"Georg":5613,"Element":5614,"Splendored":5615,"Roses":5616,"Logic":5617,"Violets":5618,"Kinky":5619,"Rays":5620,"Fifth":5621,"Gamma":5622,"Negotiator":5623,"Intentions":5624,"Marigolds":5625,"Impostors":5626,"Georgia":5627,"Bha":5628,"Fierce":5629,"Jak":5630,"Mem":5631,"Macle":5632,"onde":5633,"ories":5634,"ann":5635,"ander":5636,"Stard":5637,"unket":5638,"Shilo":5639,"verness":5640,"Blonde":5641,"Marg":5642,"Adam":5643,"Governess":5644,"Scout":5645,"phant":5646,"ulls":5647,"Snakes":5648,"Agent":5649,"1960s":5650,"Frenzy":5651,"Sleepaway":5652,"Plunket":5653,"NetForce":5654,"Frogs":5655,"Relax":5656,"Floats":5657,"Violence":5658,"Skulls":5659,"Bhaji":5660,"Jakob":5661,"Memories":5662,"Macleane":5663,"Stardust":5664,"Shiloh":5665,"Plunkett":5666,"Cy":5667,"Emer":5668,"Hel":5669,"Luck":5670,"jas":5671,"arning":5672,"stas":5673,"orty":5674,"exander":5675,"toler":5676,"Stage":5677,"urice":5678,"Shorty":5679,"Intoler":5680,"Alexander":5681,"Learning":5682,"Coma":5683,"Maurice":5684,"Joy":5685,"Higher":5686,"Coast":5687,"Ninjas":5688,"Moment":5689,"Butler":5690,"Watership":5691,"Gangstas":5692,"quito":5693,"Bernie":5694,"Babes":5695,"Elephant":5696,"Mosquito":5697,"Chinese":5698,"Diva":5699,"Toyland":5700,"Museum":5701,"Mega":5702,"Margaret":5703,"Emerald":5704,"Help":5705,"Intolerance":5706,"Bent":5707,"Batt":5708,"Dur":5709,"Hoc":5710,"Muri":5711,"Solo":5712,"Vers":5713,"event":5714,"ift":5715,"otic":5716,"val":5717,"ucting":5718,"terday":5719,"anna":5720,"olution":5721,"owup":5722,"ooting":5723,"Decon":5724,"Shift":5725,"Shooting":5726,"Receiver":5727,"Sean":5728,"Blowup":5729,"Exotic":5730,"Awfully":5731,"Bradd":5732,"Belly":5733,"structing":5734,"Browning":5735,"Fantasia":5736,"Pocus":5737,"Yesterday":5738,"Revolution":5739,"Battling":5740,"Durham":5741,"Hocus":5742,"Muriel":5743,"Version":5744,"Deconstructing":5745,"Exotica":5746,"Braddock":5747,"Pine":5748,"Stin":5749,"guest":5750,"storm":5751,"1916":5752,"actual":5753,"Houseguest":5754,"Firestorm":5755,"Gotta":5756,"Resort":5757,"Grail":5758,"Eagles":5759,"Fanny":5760,"Duets":5761,"events":5762,"Pinewood":5763,"Stinks":5764,"Adren":5765,"Gilm":5766,"Rh":5767,"Rough":5768,"Win":5769,"alin":5770,"icho":5771,"illon":5772,"shine":5773,"Sunshine":5774,"Crew":5775,"Hereaf":5776,"Terminal":5777,"Jericho":5778,"apsody":5779,"sati":5780,"Adrenalin":5781,"Gilmore":5782,"Rhapsody":5783,"Hereafter":5784,"Fal":5785,"Fel":5786,"Nat":5787,"Towers":5788,"got":5789,"enz":5790,"icia":5791,"force":5792,"Peeping":5793,"Forgot":5794,"Lifeforce":5795,"Talks":5796,"Steve":5797,"Walkabout":5798,"Overnight":5799,"Minors":5800,"Roseanna":5801,"Fanatic":5802,"Career":5803,"Careful":5804,"Delivery":5805,"Skip":5806,"False":5807,"Felicia":5808,"Forgotten":5809,"Actor":5810,"Boo":5811,"Hy":5812,"Pap":5813,"enth":5814,"enade":5815,"tely":5816,"thic":5817,"iest":5818,"ievers":5819,"chka":5820,"Spice":5821,"Parenth":5822,"otchka":5823,"Deader":5824,"Gothic":5825,"istenz":5826,"Starlight":5827,"Comple":5828,"Existenz":5829,"Joan":5830,"Frankie":5831,"Hello":5832,"Happiest":5833,"1922":5834,"uppet":5835,"Ninotchka":5836,"Believers":5837,"Serenade":5838,"Nuts":5839,"Howards":5840,"Clockers":5841,"England":5842,"Millionaire":5843,"Mixed":5844,"Booty":5845,"Papillon":5846,"Parenthood":5847,"Completely":5848,"Angu":5849,"Cronos":5850,"Ting":5851,"Wav":5852,"rical":5853,"zor":5854,"ustery":5855,"Blustery":5856,"Spare":5857,"opolis":5858,"Darby":5859,"Jude":5860,"Swamp":5861,"izopolis":5862,"Razor":5863,"Topaz":5864,"Schizopolis":5865,"Pooh":5866,"serial":5867,"Dime":5868,"Winnie":5869,"satirical":5870,"Hype":5871,"Angus":5872,"Tingler":5873,"Waves":5874,"Aug":5875,"Cinde":5876,"Fu":5877,"Gann":5878,"Hil":5879,"Sit":5880,"rella":5881,"endish":5882,"inity":5883,"amie":5884,"rix":5885,"Doc":5886,"Among":5887,"Snake":5888,"Jackie":5889,"1928":5890,"Dangerously":5891,"Laramie":5892,"Dancemaker":5893,"Surf":5894,"Fiendish":5895,"Matrix":5896,"Infinity":5897,"Manchu":5898,"Russia":5899,"Natty":5900,"August":5901,"Cinderella":5902,"Hilary":5903,"Sitters":5904,"Ax":5905,"Pow":5906,"der":5907,"enger":5908,"ancy":5909,"derer":5910,"astrop":5911,"Alice":5912,"Fluke":5913,"Flipper":5914,"ments":5915,"keteers":5916,"Job":5917,"Catastrop":5918,"Musketeers":5919,"Verme":5920,"Commitments":5921,"Gardens":5922,"Messenger":5923,"RocketMan":5924,"Murderer":5925,"Axe":5926,"Powder":5927,"Catastrophes":5928,"Vermeers":5929,"Dut":5930,"Dwar":5931,"Naz":5932,"Possess":5933,"Puppet":5934,"Went":5935,"dome":5936,"fs":5937,"gr":5938,"ora":5939,"fort":5940,"upier":5941,"Starman":5942,"boat":5943,"Comfort":5944,"Convers":5945,"Lifeboat":5946,"Croupier":5947,"Heavenly":5948,"Seventh":5949,"criminal":5950,"Piece":5951,"Thunderdome":5952,"Kindred":5953,"ictly":5954,"German":5955,"Chances":5956,"Ballroom":5957,"Strictly":5958,"Dwarfs":5959,"Nazis":5960,"Possession":5961,"Conversation":5962,"Ko":5963,"Nancy":5964,"Sid":5965,"tection":5966,"alous":5967,"anley":5968,"2007":5969,"Progr":5970,"Protection":5971,"Jealous":5972,"aza":5973,"Mercy":5974,"Everest":5975,"Actress":5976,"Harvest":5977,"Cyb":5978,"Documentary":5979,"Program":5980,"Jealousy":5981,"Kur":5982,"Kaza":5983,"Pand":5984,"pace":5985,"191":5986,"1919":5987,"1917":5988,"erspace":5989,"Loaf":5990,"chman":5991,"Forces":5992,"Cheap":5993,"Error":5994,"Deliverance":5995,"Matter":5996,"Following":5997,"Shop":5998,"Dutchman":5999,"Cyberspace":6000,"Kurt":6001,"Kazaam":6002,"Pandora":6003,"Boot":6004,"Ran":6005,"Sat":6006,"Ta":6007,"por":6008,"Loved":6009,"Twenty":6010,"2000s":6011,"Suppor":6012,"1915":6013,"Bootmen":6014,"Saturn":6015,"Supporting":6016,"IM":6017,"Tube":6018,"gut":6019,"mass":6020,"ilight":6021,"Stanley":6022,"Logo":6023,"chgut":6024,"assed":6025,"Twilight":6026,"epic":6027,"Core":6028,"Brassed":6029,"Crush":6030,"atermass":6031,"Smilla":6032,"Quatermass":6033,"Braveheart":6034,"Pinchgut":6035,"Aby":6036,"Kubr":6037,"NIM":6038,"Wid":6039,"anis":6040,"ows":6041,"Timmy":6042,"Willi":6043,"Tao":6044,"Abyss":6045,"Kubrick":6046,"NIMH":6047,"Widows":6048,"Dates":6049,"Les":6050,"Ori":6051,"Saw":6052,"gage":6053,"kroman":6054,"qats":6055,"tik":6056,"usions":6057,"neath":6058,"Nekroman":6059,"Parents":6060,"Excess":6061,"Mating":6062,"Madam":6063,"Couch":6064,"Earthbound":6065,"Snatch":6066,"Underneath":6067,"Slam":6068,"Innocents":6069,"Boxes":6070,"Baggage":6071,"Illusions":6072,"Habits":6073,"Arches":6074,"Courtney":6075,"yaanis":6076,"Koyaanis":6077,"Orion":6078,"qatsi":6079,"Nekromantik":6080,"Snatcher":6081,"Koyaanisqatsi":6082,"Cement":6083,"Fle":6084,"Med":6085,"Sis":6086,"natural":6087,"wri":6088,"Hole":6089,"Supernatural":6090,"blade":6091,"Surprise":6092,"Switchblade":6093,"Sisters":6094,"Figh":6095,"Fury":6096,"ees":6097,"zen":6098,"idi":6099,"ieval":6100,"Heidi":6101,"Seab":6102,"Dozen":6103,"ortance":6104,"Importance":6105,"Filth":6106,"Submar":6107,"Fleiss":6108,"Medieval":6109,"Fighting":6110,"Seabees":6111,"Submarine":6112,"Person":6113,"Romper":6114,"Vict":6115,"Stomper":6116,"Robert":6117,"Encounter":6118,"Gather":6119,"revenge":6120,"aka":6121,"Baraka":6122,"Gathering":6123,"2nd":6124,"42nd":6125,"Vany":6126,"onto":6127,"alth":6128,"Health":6129,"1936":6130,"indead":6131,"Braindead":6132,"Toronto":6133,"Cable":6134,"Vanya":6135,"File":6136,"cer":6137,"chio":6138,"Broke":6139,"1938":6140,"Backbe":6141,"mail":6142,"Searchers":6143,"Horner":6144,"Bread":6145,"Backbeat":6146,"Making":6147,"Rex":6148,"Won":6149,"ucible":6150,"Blackmail":6151,"Crucible":6152,"1929":6153,"Produc":6154,"Rawhead":6155,"Victoria":6156,"Lic":6157,"gical":6158,"tem":6159,"stri":6160,"ism":6161,"vestri":6162,"ultery":6163,"Adultery":6164,"occhio":6165,"ological":6166,"Silvestri":6167,"Pinocchio":6168,"Licence":6169,"Pran":6170,"kies":6171,"chological":6172,"Trekkies":6173,"Prancer":6174,"Dies":6175,"Guest":6176,"Nia":6177,"orrow":6178,"Flies":6179,"romance":6180,"Tomorrow":6181,"Productions":6182,"fam":6183,"gara":6184,"ilies":6185,"geia":6186,"Ligeia":6187,"Drama":6188,"Gods":6189,"Animated":6190,"Niagara":6191,"families":6192,"Satur":6193,"gen":6194,"uit":6195,"ics":6196,"Ann":6197,"1950s":6198,"animated":6199,"Saturday":6200,"Ble":6201,"tele":6202,"alian":6203,"Italian":6204,"Sony":6205,"Musical":6206,"fun":6207,"ihi":6208,"sfun":6209,"vice":6210,"Bliss":6211,"dysfun":6212,"Service":6213,"ctional":6214,"Majest":6215,"Annihi":6216,"dysfunctional":6217,"Majesty":6218,"Annihilation":6219,"ofy":6220,"Goofy":6221,"Sleeping":6222,"animation":6223,"Williams":6224,"rose":6225,"1920":6226,"bert":6227,"Darks":6228,"Enough":6229,"David":6230,"Classics":6231,"Screenplays":6232,"Holidays":6233,"vision":6234,"Winslow":6235,"writer":6236,"genre":6237,"television":6238,"1920s":6239,"Darkside":6240,"Priest":6241,"1930s":6242,"Rena":6243,"mercy":6244,"detective":6245,"issance":6246,"GoldenEye":6247,"Gramercy":6248,"Circuit":6249,"Screenpla":6250,"Renaissance":6251,"Circuitry":6252,"Screenplay":6253,"Tas":6254,"fman":6255,"Taste":6256,"Aust":6257,"Ea":6258,"Gil":6259,"blin":6260,"ps":6261,"Amblin":6262,"Grape":6263,"Eating":6264,"Gilbert":6265,"stop":6266,"isia":6267,"Cher":6268,"Artem":6269,"ughn":6270,"Jean":6271,"Bern":6272,"1940s":6273,"Hanging":6274,"series":6275,"Artemisia":6276,"Dire":6277,"Lughn":6278,"book":6279,"kn":6280,"killer":6281,"asa":6282,"apted":6283,"Unkn":6284,"Handbook":6285,"live":6286,"Poisoner":6287,"Muir":6288,"Lughnasa":6289,"Unknown":6290,"Cinematograph":6291,"Kick":6292,"cou":6293,"doc":6294,"pris":6295,"yTale":6296,"ency":6297,"short":6298,"Danny":6299,"Elfman":6300,"aust":6301,"Enterpris":6302,"Regency":6303,"FairyTale":6304,"Vancou":6305,"Screaming":6306,"Austral":6307,"Cinematography":6308,"Kicking":6309,"documentary":6310,"Enterprises":6311,"Vancouver":6312,"Dame":6313,"fits":6314,"stein":6315,"tis":6316,"anto":6317,"Station":6318,"chback":6319,"Hunchback":6320,"Notre":6321,"Benefits":6322,"Spanish":6323,"Cries":6324,"Bernstein":6325,"D3":6326,"fred":6327,"Adapted":6328,"rette":6329,"Sommers":6330,"Virus":6331,"Squanto":6332,"Florette":6333,"Shore":6334,"Sommersby":6335,"Cree":6336,"gan":6337,"race":6338,"sfield":6339,"Mansfield":6340,"Lips":6341,"eme":6342,"Upper":6343,"ethnic":6344,"Stiff":6345,"Morgan":6346,"works":6347,"Australian":6348,"Creek":6349,"ethnicity":6350,"Faust":6351,"Ip":6352,"Kol":6353,"Nice":6354,"Rumb":6355,"Sous":6356,"cress":6357,"ract":6358,"zka":6359,"atzka":6360,"urs":6361,"cest":6362,"Shave":6363,"Ready":6364,"essa":6365,"formist":6366,"Incest":6367,"Newman":6368,"iteurs":6369,"Conformist":6370,"tsman":6371,"Sword":6372,"ughtsman":6373,"Minus":6374,"Contract":6375,"Juliet":6376,"Draughtsman":6377,"music":6378,"Visiteurs":6379,"Direction":6380,"Ipcress":6381,"Kolya":6382,"Rumble":6383,"Sousatzka":6384,"Hund":6385,"Im":6386,"Milo":6387,"Od":6388,"Otis":6389,"slash":6390,"ule":6391,"winter":6392,"atess":6393,"icule":6394,"icatess":6395,"Elmer":6396,"Ridicule":6397,"Midwinter":6398,"Graeme":6399,"Delicatess":6400,"Lesson":6401,"Dystop":6402,"psychological":6403,"Revell":6404,"Bleak":6405,"Hundred":6406,"Odessa":6407,"slasher":6408,"Delicatessen":6409,"Dystopian":6410,"Arist":6411,"Name":6412,"Zimmer":6413,"evo":6414,"jevo":6415,"drug":6416,"ffic":6417,"Web":6418,"ocats":6419,"Traffic":6420,"Jerky":6421,"Sarajevo":6422,"Aristocats":6423,"drugs":6424,"boo":6425,"iting":6426,"non":6427,"poli":6428,"rack":6429,"terror":6430,"orid":6431,"vide":6432,"Heist":6433,"Alfred":6434,"otte":6435,"Florid":6436,"Slipper":6437,"Editing":6438,"Psychological":6439,"Cabiri":6440,"remakes":6441,"Charlotte":6442,"books":6443,"political":6444,"terrorism":6445,"video":6446,"Florida":6447,"Cabiria":6448,"Direc":6449,"Kam":6450,"Mex":6451,"ersu":6452,"Lola":6453,"ists":6454,"Steph":6455,"Features":6456,"Dollars":6457,"sports":6458,"Breathing":6459,"travel":6460,"orphans":6461,"Reeds":6462,"Cherry":6463,"Directing":6464,"Kamen":6465,"Uta":6466,"di":6467,"van":6468,"inell":6469,"thew":6470,"Animation":6471,"Samuel":6472,"Matthew":6473,"Signals":6474,"Stephen":6475,"Utah":6476,"inelli":6477,"AF":6478,"Aubr":6479,"BAF":6480,"Fes":6481,"Nelly":6482,"TA":6483,"future":6484,"hous":6485,"iant":6486,"rac":6487,"sex":6488,"tival":6489,"ario":6490,"igos":6491,"imon":6492,"Lions":6493,"award":6494,"udos":6495,"ubine":6496,"Acid":6497,"Arna":6498,"Carmen":6499,"Amigos":6500,"Farinelli":6501,"Valiant":6502,"Saludos":6503,"Silver":6504,"Saint":6505,"Lucie":6506,"Burwell":6507,"Concubine":6508,"William":6509,"Mexico":6510,"Aubrac":6511,"BAFTA":6512,"Festival":6513,"houses":6514,"Arnaud":6515,"Bill":6516,"Fantasy":6517,"Hans":6518,"Kath":6519,"Ore":6520,"Sum":6521,"ba":6522,"state":6523,"ros":6524,"eding":6525,"unists":6526,"Those":6527,"usin":6528,"itfire":6529,"Spitfire":6530,"ension":6531,"Caro":6532,"ortunists":6533,"Grill":6534,"Grusin":6535,"Christoph":6536,"spy":6537,"Digimon":6538,"Opportunists":6539,"Dimension":6540,"writers":6541,"Bleeding":6542,"diario":6543,"Oregon":6544,"Christopher":6545,"Gab":6546,"crack":6547,"vor":6548,"stume":6549,"ini":6550,"acter":6551,"urance":6552,"Thumb":6553,"ott":6554,"agine":6555,"Lee":6556,"Trevor":6557,"Costume":6558,"Endurance":6559,"Firecrack":6560,"Canal":6561,"Open":6562,"Character":6563,"Germ":6564,"Imagine":6565,"Firecracker":6566,"Asp":6567,"Ears":6568,"Hitch":6569,"Jap":6570,"Jules":6571,"Kage":6572,"Kans":6573,"Trim":6574,"lvan":6575,"mush":6576,"ark":6577,"inist":6578,"ilty":6579,"etta":6580,"idist":6581,"cock":6582,"sylvan":6583,"school":6584,"Guilty":6585,"Prick":6586,"Turning":6587,"Rosetta":6588,"Keep":6589,"Lucy":6590,"Septem":6591,"Feminist":6592,"Chambermaid":6593,"baum":6594,"Aspidist":6595,"Hitchcock":6596,"Japan":6597,"Kagemush":6598,"Kansas":6599,"Trimark":6600,"sylvania":6601,"September":6602,"Aspidistra":6603,"Kagemusha":6604,"Gn":6605,"Kull":6606,"Lan":6607,"Mil":6608,"Moo":6609,"Might":6610,"Penn":6611,"Persu":6612,"Sol":6613,"Tul":6614,"contain":6615,"do":6616,"ground":6617,"high":6618,"tran":6619,"west":6620,"roc":6621,"ucat":6622,"alle":6623,"educat":6624,"isa":6625,"isis":6626,"etts":6627,"leg":6628,"usetts":6629,"ants":6630,"Deadly":6631,"ticles":6632,"Articles":6633,"1934":6634,"achusetts":6635,"Joel":6636,"Donald":6637,"Metrop":6638,"Crisis":6639,"ioCanal":6640,"StudioCanal":6641,"Massachusetts":6642,"Underground":6643,"Bette":6644,"Breaker":6645,"Northwest":6646,"Caballe":6647,"Morant":6648,"Area":6649,"Fancy":6650,"Conqueror":6651,"Keys":6652,"clips":6653,"Mobile":6654,"Courtroom":6655,"Gnome":6656,"Moore":6657,"Persuasion":6658,"Solar":6659,"Tulsa":6660,"containing":6661,"transport":6662,"educators":6663,"Metropolis":6664,"Caballeros":6665,"Lisa":6666,"Medi":6667,"Ni":6668,"des":6669,"hist":6670,"mos":6671,"tial":6672,"terran":6673,"orical":6674,"leen":6675,"Manon":6676,"Chuck":6677,"osmos":6678,"Moving":6679,"Scott":6680,"ians":6681,"screw":6682,"Howl":6683,"Steven":6684,"beh":6685,"Triad":6686,"olias":6687,"Magnolias":6688,"Randy":6689,"Sources":6690,"Microc":6691,"Prisoner":6692,"Russell":6693,"musicians":6694,"Kathleen":6695,"Gabbeh":6696,"Japanese":6697,"Lantern":6698,"Mediterran":6699,"historical":6700,"screwball":6701,"Microcosmos":6702,"Mediterrane":6703,"BB":6704,"Jar":6705,"Kenn":6706,"Map":6707,"Main":6708,"Pont":6709,"Um":6710,"bian":6711,"du":6712,"par":6713,"san":6714,"suic":6715,"uf":6716,"vare":6717,"arts":6718,"elf":6719,"interrac":6720,"using":6721,"Neuf":6722,"Alvare":6723,"Greg":6724,"Carav":6725,"Amants":6726,"DreamWorks":6727,"berg":6728,"Legs":6729,"Supergirl":6730,"Belle":6731,"Artisan":6732,"llas":6733,"Charles":6734,"bourg":6735,"brellas":6736,"Lesbian":6737,"Cherbourg":6738,"Pennsylvania":6739,"Mediterraneo":6740,"BBC":6741,"Jarre":6742,"Maine":6743,"Umbrellas":6744,"suicide":6745,"interracial":6746,"Alvarez":6747,"Caravan":6748,"11":6749,"Gos":6750,"Jon":6751,"Mac":6752,"cap":6753,"pel":6754,"pun":6755,"paths":6756,"sti":6757,"zer":6758,"zipped":6759,"elman":6760,"off":6761,"ette":6762,"Dean":6763,"ital":6764,"Ropes":6765,"Unzipped":6766,"Martin":6767,"2011":6768,"Glob":6769,"July":6770,"Edelman":6771,"chopaths":6772,"Feast":6773,"ording":6774,"Grazer":6775,"uality":6776,"psychopaths":6777,"According":6778,"Germinal":6779,"Kennedy":6780,"Gospel":6781,"capital":6782,"punishment":6783,"stit":6784,"Globus":6785,"18":6786,"Der":6787,"Dennis":6788,"Hound":6789,"KO":6790,"Ka":6791,"Mina":6792,"RKO":6793,"Tou":6794,"Tann":6795,"avi":6796,"bud":6797,"fer":6798,"gender":6799,"lon":6800,"rick":6801,"ster":6802,"sol":6803,"enbaum":6804,"rotic":6805,"Deb":6806,"Shat":6807,"Anton":6808,"Marks":6809,"Leon":6810,"Golan":6811,"Walsh":6812,"Allen":6813,"Conti":6814,"Carib":6815,"Mussol":6816,"Funhouse":6817,"bean":6818,"clo":6819,"Tea":6820,"Chef":6821,"Realm":6822,"Patrick":6823,"Senses":6824,"Transgender":6825,"Turns":6826,"Pirates":6827,"Kevin":6828,"Destiny":6829,"Christian":6830,"Cyclo":6831,"Kahn":6832,"Toulon":6833,"Tannenbaum":6834,"aviation":6835,"buddy":6836,"Caribbean":6837,"Mussolini":6838,"Bis":6839,"Gan":6840,"Gib":6841,"Gamb":6842,"Mand":6843,"Nos":6844,"Otello":6845,"Path":6846,"Ral":6847,"ci":6848,"dis":6849,"och":6850,"sub":6851,"weg":6852,"enter":6853,"tered":6854,"timore":6855,"stree":6856,"exuality":6857,"merica":6858,"iso":6859,"atu":6860,"asite":6861,"leans":6862,"Dep":6863,"itary":6864,"Mann":6865,"Parasite":6866,"nery":6867,"motion":6868,"actors":6869,"Elstree":6870,"Harris":6871,"Catwalk":6872,"Solas":6873,"Paradiso":6874,"Indoch":6875,"Orleans":6876,"beweg":6877,"Group":6878,"Willis":6879,"Maryland":6880,"Demi":6881,"Robot":6882,"Colorado":6883,"urbia":6884,"Salt":6885,"Davis":6886,"Gangster":6887,"Lowell":6888,"Lamerica":6889,"Baltimore":6890,"Marshall":6891,"Verdict":6892,"Insomnia":6893,"Nadja":6894,"Mixing":6895,"Image":6896,"legal":6897,"parody":6898,"Gregson":6899,"feratu":6900,"Shattered":6901,"Antonia":6902,"Bisexuality":6903,"Ganz":6904,"Nosferatu":6905,"Pathé":6906,"Ralph":6907,"disaster":6908,"suburbia":6909,"Indochine":6910,"bewegte":6911,"Cus":6912,"Dersu":6913,"Erotic":6914,"Gol":6915,"Hana":6916,"Ner":6917,"Nough":6918,"Pather":6919,"Sar":6920,"Self":6921,"Tets":6922,"Uz":6923,"Zed":6924,"bi":6925,"cent":6926,"fl":6927,"fia":6928,"hut":6929,"iel":6930,"ive":6931,"kwell":6932,"lie":6933,"nio":6934,"nib":6935,"port":6936,"uo":6937,"vous":6938,"vall":6939,"wedd":6940,"refl":6941,"endent":6942,"iner":6943,"ali":6944,"alco":6945,"alism":6946,"edour":6947,"exive":6948,"tosc":6949,"ications":6950,"aton":6951,"unications":6952,"Rotosc":6953,"chan":6954,"chno":6955,"chali":6956,"Short":6957,"Inkwell":6958,"oped":6959,"Weins":6960,"feature":6961,"Marc":6962,"Clint":6963,"Connery":6964,"Mafia":6965,"ependent":6966,"Streep":6967,"Poledour":6968,"Elli":6969,"Glenn":6970,"iano":6971,"scope":6972,"Ennio":6973,"Communications":6974,"Independent":6975,"Greenhut":6976,"Verge":6977,"Breakdown":6978,"Cannib":6979,"oundt":6980,"Techno":6981,"Basil":6982,"Meryl":6983,"Hammer":6984,"Searchlight":6985,"Morric":6986,"Eric":6987,"Effects":6988,"inois":6989,"Sanju":6990,"Interscope":6991,"holism":6992,"Panchali":6993,"business":6994,"martial":6995,"Keaton":6996,"Illinois":6997,"Duvall":6998,"prostit":6999,"Visual":7000,"Fictional":7001,"Eastwood":7002,"dogs":7003,"Niro":7004,"Debney":7005,"Gibson":7006,"Saltmen":7007,"Cusack":7008,"Nervous":7009,"Noughts":7010,"Tetsuo":7011,"Uzala":7012,"weddings":7013,"reflexive":7014,"alcoholism":7015,"Rotoscoped":7016,"Weinstein":7017,"Poledouris":7018,"Cannibalism":7019,"Morricone":7020,"Sanjuro":7021,"prostitution":7022,"25":7023,"Cure":7024,"Dian":7025,"Fitz":7026,"Ira":7027,"Ish":7028,"Jona":7029,"Kama":7030,"Lang":7031,"Lalo":7032,"Piano":7033,"Su":7034,"Sof":7035,"Sut":7036,"Siss":7037,"Stein":7038,"born":7039,"ches":7040,"cont":7041,"hun":7042,"hum":7043,"kins":7044,"ló":7045,"mond":7046,"nuc":7047,"nbaum":7048,"oy":7049,"penter":7050,"rd":7051,"sil":7052,"soundt":7053,"yle":7054,"enity":7055,"rovers":7056,"election":7057,"entiis":7058,"erue":7059,"theast":7060,"etrope":7061,"riage":7062,"adap":7063,"lear":7064,"Stal":7065,"Film4":7066,"Thirty":7067,"users":7068,"Manfred":7069,"death":7070,"iman":7071,"Roth":7072,"Boston":7073,"apocalyp":7074,"Lion":7075,"Spain":7076,"Brough":7077,"Newborn":7078,"anton":7079,"mann":7080,"Walter":7081,"Wallace":7082,"Carpenter":7083,"Daniel":7084,"elsen":7085,"thern":7086,"therland":7087,"Grant":7088,"iana":7089,"scenity":7090,"Spacek":7091,"Fruit":7092,"Title":7093,"graphies":7094,"Southeast":7095,"Southern":7096,"Oldman":7097,"apons":7098,"Greenberg":7099,"Trousers":7100,"Voight":7101,"Quin":7102,"Teacher":7103,"Delerue":7104,"ifrin":7105,"Shaiman":7106,"Bandit":7107,"Slater":7108,"Georges":7109,"Facing":7110,"Birnbaum":7111,"Savoy":7112,"Julian":7113,"Boiled":7114,"Laurentiis":7115,"Obscenity":7116,"tations":7117,"rayals":7118,"Schifrin":7119,"Richardson":7120,"Irish":7121,"raldo":7122,"Lucches":7123,"Presentation":7124,"Dunaway":7125,"carraldo":7126,"Biographical":7127,"Zoetrope":7128,"weapons":7129,"Louisiana":7130,"Rabin":7131,"biographies":7132,"Wilson":7133,"Leslie":7134,"Dramatic":7135,"Direct":7136,"Zimmerman":7137,"racks":7138,"racism":7139,"Germany":7140,"Military":7141,"Nielsen":7142,"Diane":7143,"Fitzcarraldo":7144,"Isham":7145,"Jonah":7146,"Sutherland":7147,"Soft":7148,"Sutra":7149,"Sissy":7150,"controvers":7151,"humor":7152,"nuclear":7153,"silent":7154,"soundtracks":7155,"elections":7156,"adaptations":7157,"Manfredini":7158,"apocalyptic":7159,"Broughton":7160,"Lucchesi":7161,"controversies":7162,"Ak":7163,"Ba":7164,"Bart":7165,"Cap":7166,"Cund":7167,"Ciner":7168,"Es":7169,"Fist":7170,"Fonda":7171,"Hof":7172,"Hos":7173,"Hop":7174,"Lind":7175,"Nich":7176,"Nico":7177,"Pon":7178,"Ted":7179,"Tay":7180,"Tamp":7181,"ctic":7182,"far":7183,"ienti":7184,"iak":7185,"justice":7186,"lor":7187,"life":7188,"mi":7189,"mis":7190,"mul":7191,"nar":7192,"pson":7193,"puppet":7194,"rad":7195,"rze":7196,"rader":7197,"tter":7198,"uage":7199,"wart":7200,"ends":7201,"tiple":7202,"tists":7203,"artists":7204,"latter":7205,"roy":7206,"inot":7207,"ilton":7208,"filmmaker":7209,"isch":7210,"islands":7211,"amo":7212,"amas":7213,"etti":7214,"olson":7215,"igan":7216,"igious":7217,"andon":7218,"thy":7219,"Stanton":7220,"ira":7221,"Deak":7222,"cemi":7223,"Thai":7224,"chant":7225,"Splatter":7226,"Spinot":7227,"Albert":7228,"opo":7229,"agli":7230,"Martial":7231,"Leo":7232,"Italy":7233,"Arnon":7234,"itel":7235,"quette":7236,"ocaust":7237,"angels":7238,"Holocaust":7239,"Nova":7240,"scienti":7241,"Phone":7242,"Andrze":7243,"Seafar":7244,"iley":7245,"Roadshow":7246,"Curtis":7247,"Faraway":7248,"Myself":7249,"nah":7250,"Walken":7251,"Carolco":7252,"haus":7253,"Geoff":7254,"Merchant":7255,"Hamilton":7256,"urban":7257,"fictional":7258,"Julia":7259,"Thompson":7260,"Woody":7261,"Monsters":7262,"Religious":7263,"Schrader":7264,"Jamie":7265,"Rosen":7266,"Gerald":7267,"Irwin":7268,"Makeup":7269,"Keitel":7270,"Buscemi":7271,"carriage":7272,"kowiak":7273,"Leading":7274,"Rudin":7275,"Susannah":7276,"Connectic":7277,"blum":7278,"Russian":7279,"Victor":7280,"Milchan":7281,"legends":7282,"Stevenson":7283,"Leonard":7284,"Leonetti":7285,"Gambling":7286,"Department":7287,"Golin":7288,"Sarandon":7289,"century":7290,"portrayals":7291,"Language":7292,"hunt":7293,"Bailey":7294,"Bartkowiak":7295,"Cundey":7296,"Cinergi":7297,"Fistful":7298,"Hoffman":7299,"Hoskins":7300,"Hopper":7301,"Nicholson":7302,"Nicolas":7303,"Ponette":7304,"Taylor":7305,"Tampopo":7306,"miscarriage":7307,"multiple":7308,"puppetry":7309,"Deakins":7310,"Thailand":7311,"Spinotti":7312,"scientist":7313,"Andrzej":7314,"Seafaring":7315,"Geoffrey":7316,"Connecticut":7317,"23":7318,"AA":7319,"Ash":7320,"Bates":7321,"Boss":7322,"Cage":7323,"Cath":7324,"Dri":7325,"Dustin":7326,"Eon":7327,"Fent":7328,"GC":7329,"Gord":7330,"Hong":7331,"Hanley":7332,"Iv":7333,"Icon":7334,"Jay":7335,"Ku":7336,"Len":7337,"Lus":7338,"MP":7339,"Mol":7340,"Non":7341,"Nie":7342,"Natal":7343,"Nitz":7344,"Oh":7345,"Pes":7346,"Pho":7347,"Ró":7348,"Ric":7349,"Row":7350,"Sig":7351,"Ten":7352,"UGC":7353,"Va":7354,"Vig":7355,"Ward":7356,"Wink":7357,"Yo":7358,"aid":7359,"aism":7360,"bber":7361,"bution":7362,"cc":7363,"cro":7364,"cinema":7365,"craft":7366,"duc":7367,"eball":7368,"gh":7369,"ito":7370,"iat":7371,"ike":7372,"ilan":7373,"jim":7374,"jour":7375,"kamp":7376,"kló":7377,"lings":7378,"lisch":7379,"menti":7380,"made":7381,"nal":7382,"nel":7383,"nold":7384,"rmann":7385,"sence":7386,"udr":7387,"uiz":7388,"yk":7389,"zsa":7390,"enix":7391,"teve":7392,"tels":7393,"ties":7394,"aron":7395,"lanie":7396,"rock":7397,"robber":7398,"terrestrial":7399,"orin":7400,"orman":7401,"ateful":7402,"into":7403,"viau":7404,"presence":7405,"ilio":7406,"aniz":7407,"ery":7408,"erator":7409,"erated":7410,"Theo":7411,"ofalo":7412,"asha":7413,"rio":7414,"riel":7415,"rian":7416,"ribution":7417,"adapted":7418,"thal":7419,"thau":7420,"computer":7421,"Depress":7422,"uns":7423,"Thorin":7424,"Beacon":7425,"Mancin":7426,"raub":7427,"rape":7428,"rative":7429,"raterrestrial":7430,"imag":7431,"chiat":7432,"Shap":7433,"Neill":7434,"Seed":7435,"Seale":7436,"Spen":7437,"Spike":7438,"Brocc":7439,"ffith":7440,"Anthon":7441,"Doyle":7442,"Whoop":7443,"operator":7444,"Weint":7445,"awa":7446,"sher":7447,"Meph":7448,"Melanie":7449,"abduc":7450,"Marine":7451,"Leigh":7452,"isto":7453,"Sche":7454,"Arquette":7455,"Arnold":7456,"Goldman":7457,"Goldberg":7458,"enson":7459,"eph":7460,"therton":7461,"ipes":7462,"airpla":7463,"tsbur":7464,"basketball":7465,"baseball":7466,"tina":7467,"Grateful":7468,"sche":7469,"Legal":7470,"Leguiz":7471,"extraterrestrial":7472,"Phil":7473,"Travis":7474,"iod":7475,"Stewart":7476,"Snipes":7477,"Corman":7478,"Corps":7479,"Angelo":7480,"Gena":7481,"Claude":7482,"Herrmann":7483,"Goldenthal":7484,"Nino":7485,"Guiller":7486,"Badala":7487,"India":7488,"nessee":7489,"Mason":7490,"Boyd":7491,"Quaid":7492,"before":7493,"Cannon":7494,"Michigan":7495,"Hurt":7496,"Wesley":7497,"Judaism":7498,"Crowe":7499,"ology":7500,"Hamlisch":7501,"ifting":7502,"Daviau":7503,"Mikló":7504,"Griffith":7505,"Cleese":7506,"Witchcraft":7507,"Patric":7508,"Emb":7509,"Emma":7510,"Emilio":7511,"Berger":7512,"Barbara":7513,"Transylvania":7514,"Kline":7515,"Earl":7516,"Bancro":7517,"Substit":7518,"Sande":7519,"Wagner":7520,"Matthau":7521,"Pittsbur":7522,"Distribution":7523,"Janeane":7524,"Murray":7525,"Channel":7526,"eshifting":7527,"Bronson":7528,"Kean":7529,"Rysher":7530,"Marsha":7531,"Simpson":7532,"psychiat":7533,"Jews":7534,"Chasers":7535,"60s":7536,"Hughes":7537,"Christina":7538,"80s":7539,"linear":7540,"Garofalo":7541,"Jeffrey":7542,"anthology":7543,"Douglas":7544,"organiz":7545,"satire":7546,"Natasha":7547,"Docudr":7548,"Production":7549,"generated":7550,"telepresence":7551,"Bernard":7552,"Australia":7553,"Kathy":7554,"rosawa":7555,"Gabriel":7556,"1860s":7557,"1880s":7558,"Gambon":7559,"Mandel":7560,"Elliot":7561,"Elliott":7562,"Steinkamp":7563,"Stalker":7564,"Quinn":7565,"Julianne":7566,"Akira":7567,"Esteve":7568,"narrative":7569,"23rd":7570,"Bossa":7571,"Driver":7572,"Fenton":7573,"Gordon":7574,"Ivory":7575,"Kurosawa":7576,"Lennie":7577,"Luske":7578,"MPAA":7579,"Nonlinear":7580,"Niehaus":7581,"Natalie":7582,"Nitzsche":7583,"Ohio":7584,"Pesci":7585,"Phoenix":7586,"Rózsa":7587,"Ricci":7588,"Rowlands":7589,"Tennessee":7590,"Vigilan":7591,"Winkler":7592,"Yojim":7593,"journal":7594,"robbery":7595,"Depression":7596,"Mancini":7597,"imagery":7598,"Shapeshifting":7599,"Broccoli":7600,"Anthony":7601,"Whoopi":7602,"Weintraub":7603,"Mephisto":7604,"abduction":7605,"airplanes":7606,"Leguizamo":7607,"Badalamenti":7608,"Miklós":7609,"Bancroft":7610,"Substitute":7611,"Pittsburgh":7612,"organized":7613,"Docudramas":7614,"Estevez":7615,"Vigilante":7616,"Yojimbo":7617,"journalists":7618,"0s":7619,"Aur":7620,"Aid":7621,"Bond":7622,"Cant":7623,"Dom":7624,"Dillon":7625,"Ev":7626,"Fina":7627,"Fraker":7628,"Gé":7629,"Grod":7630,"Gem":7631,"Gale":7632,"Hir":7633,"Hurd":7634,"Hugh":7635,"Hamb":7636,"Henson":7637,"Il":7638,"Ian":7639,"Jan":7640,"Jip":7641,"Joss":7642,"Jenna":7643,"Kas":7644,"Kow":7645,"Kim":7646,"Kem":7647,"Kris":7648,"Kyle":7649,"Lu":7650,"Lá":7651,"Lil":7652,"Lach":7653,"Lau":7654,"Lance":7655,"Lakes":7656,"Lena":7657,"Luise":7658,"Llo":7659,"Mü":7660,"Mam":7661,"Matt":7662,"Nol":7663,"Nyk":7664,"Nuns":7665,"Og":7666,"Ok":7667,"Olin":7668,"Plow":7669,"Piper":7670,"Pagli":7671,"Rook":7672,"Sven":7673,"Siod":7674,"Ti":7675,"Tow":7676,"Tele":7677,"Wa":7678,"Wex":7679,"Wat":7680,"Yor":7681,"Yared":7682,"Zan":7683,"Zha":7684,"Zeme":7685,"aug":7686,"bins":7687,"cs":7688,"cina":7689,"cord":7690,"cars":7691,"cient":7692,"dle":7693,"dress":7694,"dern":7695,"eville":7696,"eves":7697,"erotic":7698,"fre":7699,"fill":7700,"gn":7701,"gå":7702,"gio":7703,"hy":7704,"hom":7705,"horn":7706,"jna":7707,"ki":7708,"kell":7709,"len":7710,"lican":7711,"loon":7712,"min":7713,"mil":7714,"mak":7715,"mour":7716,"net":7717,"nell":7718,"othy":7719,"punk":7720,"right":7721,"rard":7722,"sz":7723,"sla":7724,"sch":7725,"sib":7726,"uting":7727,"vá":7728,"vé":7729,"wish":7730,"xi":7731,"yd":7732,"ymour":7733,"za":7734,"zel":7735,"zman":7736,"rel":7737,"endan":7738,"stan":7739,"artoff":7740,"lak":7741,"lahom":7742,"rothy":7743,"oris":7744,"inman":7745,"inations":7746,"omkin":7747,"alty":7748,"edon":7749,"comics":7750,"aches":7751,"vist":7752,"exper":7753,"elle":7754,"eleph":7755,"erner":7756,"hey":7757,"hero":7758,"icism":7759,"meron":7760,"ges":7761,"1910":7762,"Englund":7763,"theson":7764,"ingo":7765,"ingrad":7766,"esis":7767,"amus":7768,"amnes":7769,"olicism":7770,"ria":7771,"riks":7772,"adling":7773,"lebury":7774,"leana":7775,"leges":7776,"Stor":7777,"Stan":7778,"computing":7779,"aykin":7780,"ayze":7781,"ental":7782,"Dehn":7783,"DeLuise":7784,"ighton":7785,"univers":7786,"hore":7787,"hotels":7788,"itri":7789,"Mancina":7790,"ckis":7791,"Chartoff":7792,"Chaykin":7793,"ieu":7794,"near":7795,"Mothers":7796,"illip":7797,"imental":7798,"Roy":7799,"chn":7800,"Shamber":7801,"Sharon":7802,"Reiner":7803,"Reeves":7804,"very":7805,"Neil":7806,"Sem":7807,"Seymour":7808,"Boorman":7809,"astrona":7810,"Sport":7811,"ardieu":7812,"Anti":7813,"Dorothy":7814,"athair":7815,"Alfre":7816,"Whedon":7817,"aganda":7818,"Webs":7819,"Weaver":7820,"antlebury":7821,"shire":7822,"Platt":7823,"manian":7824,"Adrian":7825,"Leighton":7826,"assy":7827,"assass":7828,"Scantlebury":7829,"Clory":7830,"Kingdom":7831,"ublican":7832,"sson":7833,"Goldblum":7834,"Trund":7835,"Timothy":7836,"Toky":7837,"Conrad":7838,"Conaug":7839,"Constan":7840,"Rockwell":7841,"Carl":7842,"Cary":7843,"Maury":7844,"Matheson":7845,"Joanna":7846,"Jodi":7847,"avant":7848,"ourney":7849,"modern":7850,"airport":7851,"berpunk":7852,"Pollak":7853,"Donner":7854,"Cox":7855,"Coen":7856,"ickman":7857,"plehorn":7858,"Brendan":7859,"Brickman":7860,"Swayze":7861,"Slim":7862,"Phillip":7863,"fulfill":7864,"Beauties":7865,"Redford":7866,"Nightmares":7867,"Edgar":7868,"Hervé":7869,"Terry":7870,"Fraser":7871,"Players":7872,"Turner":7873,"Superhero":7874,"Miranda":7875,"ller":7876,"Barr":7877,"Baragli":7878,"onese":7879,"Doumanian":7880,"Criminal":7881,"Feature":7882,"Remar":7883,"Midler":7884,"Ormond":7885,"Richmond":7886,"Karl":7887,"Jeanne":7888,"beaches":7889,"Cryonic":7890,"Demons":7891,"tainers":7892,"Robby":7893,"Robbins":7894,"DiCap":7895,"Cameron":7896,"Stiers":7897,"Henriks":7898,"Republic":7899,"Republican":7900,"Damme":7901,"Roseanne":7902,"Morse":7903,"forests":7904,"Sinise":7905,"Pregn":7906,"Mutual":7907,"football":7908,"Grier":7909,"McD":7910,"McClory":7911,"McConaug":7912,"Portman":7913,"Propaganda":7914,"kinesis":7915,"Tripplehorn":7916,"arsgå":7917,"Peterman":7918,"Bont":7919,"Laurence":7920,"Woodard":7921,"Paymer":7922,"Postmodern":7923,"2010s":7924,"Armyan":7925,"ahl":7926,"Bretherton":7927,"Fellner":7928,"Arthurian":7929,"Denzel":7930,"Canada":7931,"Camcord":7932,"Landau":7933,"colleges":7934,"Dunn":7935,"Stellan":7936,"Stradling":7937,"Strathair":7938,"Skarsgå":7939,"Haskell":7940,"Christie":7941,"Sherman":7942,"Geronimi":7943,"brothers":7944,"Apocalyptic":7945,"Avnet":7946,"Vince":7947,"Vincent":7948,"stalking":7949,"Pickens":7950,"Diamonds":7951,"garde":7952,"Atlanta":7953,"Dimitri":7954,"Huston":7955,"animals":7956,"Kinnear":7957,"1900s":7958,"Cyberpunk":7959,"Winston":7960,"Surfing":7961,"Dutton":7962,"Ková":7963,"Taxi":7964,"Austria":7965,"Mexican":7966,"sexuality":7967,"baugh":7968,"Milius":7969,"Macchio":7970,"MacLach":7971,"Mandeville":7972,"entertainers":7973,"Depardieu":7974,"Golgo":7975,"Steiner":7976,"Stalingrad":7977,"Quinlan":7978,"Capito":7979,"Linda":7980,"royalty":7981,"Rosenman":7982,"Rosenblum":7983,"Geraldine":7984,"Leonardo":7985,"Ashton":7986,"Catholicism":7987,"Molina":7988,"Sigourney":7989,"Vajna":7990,"Warden":7991,"Spencer":7992,"Scheinman":7993,"Philip":7994,"Guillermin":7995,"Patricia":7996,"Embassy":7997,"Keanu":7998,"psychiatry":7999,"Aidan":8000,"Cantonese":8001,"Evans":8002,"Gérard":8003,"Grodin":8004,"Hirsch":8005,"Illeana":8006,"Jiping":8007,"Kowloon":8008,"Kemper":8009,"Kristin":8010,"Luze":8011,"Lász":8012,"Lili":8013,"Laurie":8014,"Lakeshore":8015,"Lloyd":8016,"Müller":8017,"Mamet":8018,"Nolte":8019,"Nykvist":8020,"Ogden":8021,"Oklahom":8022,"Plowright":8023,"Rooker":8024,"Siodmak":8025,"Tiomkin":8026,"Towne":8027,"Telekinesis":8028,"Wexler":8029,"Watkin":8030,"Yoram":8031,"Zanuck":8032,"Zhao":8033,"Zemeckis":8034,"dressing":8035,"military":8036,"slavery":8037,"siblings":8038,"experimental":8039,"elephants":8040,"1910s":8041,"amnesia":8042,"universities":8043,"Mothersbaugh":8044,"Shamberg":8045,"astronauts":8046,"Sports":8047,"Webster":8048,"assassinations":8049,"Trundy":8050,"Tokyo":8051,"Constantin":8052,"airports":8053,"Phillippe":8054,"fulfillment":8055,"Cryonics":8056,"DiCaprio":8057,"Henriksen":8058,"Pregnancy":8059,"McConaughey":8060,"Camcorder":8061,"Strathairn":8062,"Skarsgård":8063,"Kovács":8064,"MacLachlan":8065,"Capitol":8066,"László":8067,"Oklahoma":8068}